. 100
, 100
▁ 100
▁na 100
▁ya 100
’ 100
▁a 100
s 100
▁de 100
▁ba 100
▁, 100
▁e 100
▁le 100
▁wa 100
▁en 100
▁die 100
▁ku 100
▁“ 100
▁in 100
- 100
a 100
? 100
' 100
▁the 100
▁” 100
e 100
▁is 100
▁mu 100
▁- 100
▁u 100
: 100
▁van 100
▁la 100
▁I 100
n 100
▁ho 100
▁to 100
▁te 100
▁i 100
▁of 100
▁ka 100
▁( 100
▁kwa 100
▁het 100
▁n 100
▁’ 100
▁o 100
▁ne 100
▁and 100
▁no 100
▁— 100
) 100
▁ea 100
▁oyo 100
▁se 100
▁een 100
t 100
▁be 100
▁‘ 100
▁et 100
▁: 100
▁U 100
i 100
▁ni 100
▁Yehova 100
▁op 100
! 100
▁à 100
▁l 100
▁mpe 100
▁ukuba 100
▁ke 100
▁ye 100
▁je 100
▁d 100
▁met 100
▁ko 100
▁pa 100
ng 100
▁les 100
▁A 100
▁aba 100
▁om 100
; 100
... 100
▁? 100
en 100
ni 100
▁wat 100
▁nie 100
▁li 100
o 100
▁re 100
▁sa 100
▁ukuthi 100
▁des 100
▁Na 100
▁we 100
▁dat 100
▁abantu 100
▁hore 100
▁za 100
▁si 100
▁uku 100
▁bo 100
yo 100
▁ete 100
na 100
▁futhi 100
▁you 100
▁that 100
▁que 100
▁un 100
▁on 100
▁ca 100
▁me 100
▁yango 100
▁was 100
▁for 100
▁du 100
▁1 100
▁as 100
▁[ 100
ko 100
▁kuti 100
▁ha 100
▁y 100
▁yo 100
▁ngo 100
▁E 100
▁it 100
▁voor 100
▁dit 100
le 100
▁pour 100
▁ons 100
▁" 100
▁ukuti 100
▁' 100
▁pas 100
d 100
▁aan 100
▁mpo 100
▁kan 100
m 100
▁nga 100
▁katika 100
▁tse 100
▁tu 100
▁vir 100
▁oa 100
▁jy 100
er 100
ka 100
▁c 100
▁zi 100
▁ile 100
▁Ba 100
▁une 100
wa 100
▁so 100
est 100
▁2 100
la 100
▁tsa 100
ing 100
▁M 100
▁kabili 100
] 100
▁dans 100
▁my 100
r 100
▁qui 100
▁with 100
▁ezi 100
▁ezali 100
▁ook 100
▁Die 100
▁est 100
▁au 100
▁Lesa 100
▁Ku 100
▁bato 100
▁moko 100
re 100
▁b 100
ma 100
▁Yesu 100
▁kwi 100
de 100
▁uit 100
▁De 100
▁by 100
▁zijn 100
▁sur 100
se 100
▁have 100
▁maar 100
▁kuwa 100
▁kuba 100
▁ik 100
ne 100
▁are 100
­ 100
▁muri 100
ba 100
▁niet 100
▁! 100
▁noma 100
▁ari 100
▁bango 100
▁ce 100
▁O 100
te 100
▁biso 100
▁The 100
▁sana 100
▁nini 100
▁Ni 100
▁Le 100
▁this 100
ke 100
▁s 100
▁ze 100
▁C 100
▁3 100
▁vous 100
/ 100
▁; 100
u 100
y 100
▁qu 100
▁nge 100
▁w 100
▁umuntu 100
▁Nzambe 100
▁plus 100
▁/ 100
▁m 100
▁vya 100
▁ukuze 100
▁Mu 100
lo 100
▁your 100
▁kandi 100
▁jou 100
▁word 100
▁fye 100
▁par 100
▁zo 100
li 100
▁mingi 100
▁– 100
▁sy 100
▁ma 100
il 100
▁kwe 100
▁Ka 100
▁not 100
▁wana 100
▁kakhulu 100
si 100
es 100
ed 100
ra 100
mo 100
▁at 100
▁ico 100
▁In 100
▁cha 100
▁al 100
▁ifyo 100
▁co 100
▁kodwa 100
ha 100
ku 100
be 100
▁ntango 100
▁esi 100
▁N 100
▁YA 100
▁Je 100
▁over 100
▁il 100
A 100
nga 100
▁bwa 100
▁dan 100
▁4 100
we 100
ai 100
ya 100
▁or 100
I 100
▁ati 100
▁lo 100
▁tla 100
▁bi 100
▁gaan 100
▁er 100
za 100
▁ek 100
▁but 100
▁nyonso 100
▁wo 100
▁makambo 100
▁ali 100
▁nje 100
" 100
▁5 100
▁lapho 100
▁yuko 100
▁hulle 100
▁15 100
▁ou 100
zi 100
▁he 100
▁can 100
▁an 100
▁sal 100
▁Ho 100
▁vy 100
ki 100
▁oku 100
▁bona 100
▁Molimo 100
po 100
▁kati 100
▁Yezu 100
▁Jehova 100
▁B 100
▁mosusu 100
▁avec 100
▁kugira 100
▁En 100
▁ivyo 100
). 100
▁j 100
▁ngoku 100
▁meer 100
▁nog 100
▁La 100
▁will 100
▁als 100
▁from 100
▁10 100
E 100
▁Imana 100
▁iki 100
▁Kristu 100
▁ngai 100
▁Uku 100
▁hae 100
▁bij 100
▁ama 100
▁) 100
” 100
▁ndenge 100
▁Bibiliya 100
▁oor 100
un 100
▁Baibolo 100
▁Het 100
▁door 100
▁6 100
▁eli 100
▁L 100
▁mo 100
▁kuli 100
sa 100
▁tot 100
▁bu 100
▁fya 100
▁Si 100
▁S 100
▁moet 100
▁batho 100
mu 100
▁fyo 100
Imana 100
▁eo 100
▁all 100
▁moto 100
▁8 100
▁ilyo 100
▁Ha 100
▁wil 100
k 100
▁ge 100
▁yari 100
▁Wa 100
▁mais 100
je 100
ye 100
▁7 100
▁kw 100
▁deur 100
▁they 100
on 100
▁Paulo 100
▁mpenza 100
▁lya 100
▁yi 100
▁kwenye 100
▁nk 100
ve 100
▁We 100
.” 100
▁mwa 100
ly 100
▁uNkulunkulu 100
▁uwa 100
▁had 100
▁malamu 100
▁sont 100
▁Nga 100
▁ili 100
▁12 100
▁Dit 100
▁18 100
▁bazali 100
▁Ke 100
h 100
▁one 100
nt 100
▁do 100
no 100
▁hy 100
▁jaar 100
▁... 100
▁naar 100
l 100
▁Biblia 100
in 100
▁ngi 100
▁hiyo 100
▁bw 100
▁kama 100
▁ngayo 100
ze 100
▁tout 100
▁Bushe 100
▁af 100
▁T 100
▁ata 100
▁nshi 100
▁kanye 100
▁daar 100
▁bana 100
uko 100
ge 100
C 100
▁into 100
), 100
▁abo 100
▁about 100
▁ki 100
▁twa 100
▁Kwa 100
▁son 100
S 100
▁mw 100
mi 100
▁ry 100
z 100
▁canke 100
▁pali 100
▁J 100
▁nous 100
▁zonke 100
▁NA 100
▁khona 100
▁20 100
▁izinto 100
▁more 100
▁* 100
▁bien 100
b 100
▁igihe 100
▁gihe 100
▁out 100
▁9 100
▁up 100
▁] 100
▁Kodwa 100
bo 100
▁Ya 100
▁WA 100
▁doen 100
▁lelo 100
▁« 100
▁his 100
▁Ek 100
yi 100
▁kosala 100
to 100
▁azali 100
▁okanye 100
▁lwa 100
▁uma 100
▁ifya 100
▁iyo 100
▁aka 100
ta 100
▁K 100
▁deze 100
▁11 100
al 100
ri 100
▁lu 100
▁waye 100
▁has 100
U 100
▁waar 100
é 100
▁It 100
isi 100
c 100
▁worden 100
▁Il 100
▁indlela 100
▁etsa 100
▁pe 100
ho 100
▁nde 100
▁wel 100
▁Ma 100
▁like 100
▁bantu 100
▁mwaka 100
▁kunye 100
tu 100
▁bwino 100
▁neng 100
▁sha 100
▁if 100
▁net 100
▁Ik 100
me 100
▁her 100
▁D 100
▁bali 100
▁16 100
zo 100
▁cane 100
ti 100
▁haar 100
▁pele 100
▁babe 100
▁yakhe 100
▁buryo 100
▁time 100
▁Pa 100
▁kuri 100
▁Li 100
ro 100
▁aya 100
▁soki 100
▁heeft 100
▁toe 100
O 100
▁their 100
▁_ 100
▁faire 100
▁vyo 100
ment 100
▁azalaki 100
▁weer 100
▁• 100
▁ici 100
▁» 100
▁volgende 100
▁ver 100
▁bazalaki 100
▁what 100
▁Aba 100
▁17 100
▁gute 100
▁z 100
▁muli 100
▁ngenxa 100
so 100
▁fait 100
▁been 100
▁lokola 100
▁ezalaki 100
▁who 100
ji 100
▁kapa 100
▁would 100
▁aansoek 100
▁there 100
N 100
▁Afrika 100
▁uJehova 100
▁13 100
ce 100
sha 100
▁k 100
▁Lelo 100
une 100
▁rōna 100
bu 100
▁aye 100
▁iya 100
▁yake 100
▁geen 100
▁cine 100
p 100
▁maak 100
▁nelyo 100
▁just 100
M 100
shobora 100
▁lyo 100
▁xa 100
▁joalo 100
▁14 100
▁Tanzania 100
▁hierdie 100
▁kanjani 100
▁watu 100
▁mosala 100
▁phakathi 100
ga 100
▁olu 100
▁bang 100
▁cette 100
▁hier 100
▁bari 100
pa 100
▁Tu 100
▁want 100
▁Re 100
▁mense 100
▁God 100
▁aux 100
▁Jesu 100
▁kwamba 100
▁ubu 100
▁goed 100
▁which 100
▁nshita 100
f 100
▁ica 100
bi 100
▁get 100
▁hebben 100
▁comme 100
ers 100
▁wees 100
▁ça 100
." 100
▁uko 100
▁wordt 100
▁liboso 100
▁ci 100
▁yabo 100
▁kuphela 100
▁noku 100
▁baba 100
▁ndi 100
ci 100
▁ifi 100
▁baie 100
▁abana 100
▁kubera 100
▁ngoba 100
▁rero 100
▁likambo 100
▁être 100
shi 100
▁hao 100
▁epai 100
▁yaye 100
▁Les 100
▁when 100
lu 100
▁ont 100
ngo 100
▁some 100
ll 100
▁So 100
▁them 100
▁wakati 100
▁bomoi 100
▁votre 100
▁wakhe 100
▁kutoka 100
▁Abantu 100
▁30 100
ngi 100
▁ntina 100
▁shani 100
▁wake 100
▁wathi 100
B 100
▁Uma 100
▁onder 100
▁ibintu 100
▁our 100
pe 100
▁zaidi 100
▁P 100
▁kube 100
▁même 100
g 100
▁Ilyo 100
▁peut 100
thi 100
▁makasi 100
ca 100
▁Bibele 100
▁mabe 100
he 100
▁were 100
kwa 100
▁bakhe 100
▁Be 100
▁kasi 100
▁Rais 100
▁kuya 100
▁wonke 100
com 100
▁mon 100
( 100
▁yoku 100
v 100
T 100
▁bonke 100
▁baada 100
▁lokhu 100
▁leo 100
▁umo 100
▁24 100
▁isi 100
▁babo 100
▁mong 100
▁Met 100
▁uya 100
▁ngokuthi 100
▁Mkuu 100
nye 100
▁bara 100
the 100
▁soos 100
▁He 100
▁boye 100
▁hoe 100
▁R 100
▁neza 100
▁kom 100
▁veel 100
▁njengoba 100
▁calo 100
▁even 100
▁two 100
▁très 100
▁19 100
▁hii 100
▁yonke 100
x 100
▁tussen 100
fa 100
▁yakho 100
▁nchini 100
▁3: 100
▁kaka 100
w 100
▁people 100
▁abanye 100
▁man 100
▁uJesu 100
ja 100
▁mokili 100
▁ta 100
▁Hy 100
▁Sa 100
▁motho 100
▁Ariko 100
go 100
▁she 100
▁21 100
fu 100
▁lwe 100
▁25 100
▁mijn 100
▁kuye 100
ie 100
▁abe 100
▁Se 100
▁G 100
▁ander 100
▁uwo 100
“ 100
▁am 100
▁yini 100
▁kunnen 100
▁22 100
▁Ko 100
▁nou 100
▁ii 100
▁rya 100
▁nu 100
▁eku 100
nya 100
▁As 100
▁2: 100
▁werk 100
▁other 100
▁siku 100
▁uw 100
▁motema 100
▁Een 100
co 100
▁mulandu 100
▁kaNkulunkulu 100
,” 100
▁kozala 100
▁ngu 100
▁heb 100
▁Lo 100
▁nka 100
▁nako 100
▁any 100
▁said 100
▁bwo 100
▁umsebenzi 100
▁To 100
▁Kasi 100
▁leng 100
▁lui 100
▁suis 100
ur 100
▁ena 100
va 100
▁esika 100
▁ekoki 100
mba 100
▁huo 100
▁make 100
▁than 100
▁solo 100
▁seo 100
▁see 100
▁wêreld 100
sho 100
▁ri 100
▁nyene 100
▁Jy 100
▁eona 100
▁Mpo 100
▁This 100
▁aussi 100
▁don 100
▁lintho 100
ukuri 100
▁You 100
▁moja 100
▁Aben 100
▁line 100
▁2018 100
▁Maar 100
th 100
▁know 100
▁nchi 100
▁gu 100
▁Et 100
▁Wat 100
▁Lapho 100
▁site 100
▁nsima 100
▁dag 100
▁Bo 100
.... 100
▁um 100
▁chat 100
da 100
▁twee 100
▁njalo 100
▁how 100
▁nabo 100
▁ses 100
▁Ingabe 100
▁isikhathi 100
▁000 100
▁baka 100
▁fi 100
▁4: 100
lwa 100
▁eerste 100
anda 100
nge 100
▁muntu 100
▁mbere 100
▁saam 100
▁pamoja 100
▁kazi 100
2 100
▁myaka 100
▁t 100
▁Wikipedia 100
▁also 100
▁nda 100
▁1: 100
▁Mo 100
▁été 100
ste 100
heid 100
▁bongo 100
▁alle 100
▁ngendlela 100
▁go 100
▁lokho 100
▁very 100
▁hivyo 100
▁gebruik 100
▁elle 100
▁izi 100
▁kuna 100
▁Ngo 100
▁emhlabeni 100
▁ngaphandle 100
ant 100
▁ukuya 100
▁Nokho 100
▁good 100
▁No 100
▁Op 100
▁leur 100
▁groot 100
▁Ukuba 100
▁23 100
▁bambi 100
D 100
▁via 100
▁Ngakho 100
▁hij 100
▁njenge 100
▁bonse 100
▁kry 100
▁V 100
▁mwana 100
▁Ons 100
▁Ki 100
▁ana 100
▁pantu 100
elle 100
▁nangu 100
▁dus 100
▁peu 100
▁feela 100
▁temps 100
▁ukuntu 100
▁uYehova 100
G 100
▁hilo 100
▁F 100
gu 100
▁If 100
▁H 100
▁per 100
ver 100
▁Waziri 100
▁kwakhe 100
▁bale 100
▁lisusu 100
▁New 100
ndi 100
▁konke 100
▁maze 100
▁yara 100
▁toegang 100
▁haholo 100
▁Igihe 100
▁Dar 100
▁5: 100
▁weet 100
▁mwi 100
abantu 100
▁mutima 100
▁hom 100
▁new 100
▁much 100
▁loku 100
▁tous 100
▁kwaba 100
kwe 100
▁sasa 100
▁& 100
▁nto 100
▁use 100
▁think 100
▁him 100
▁mbala 100
Na 100
▁help 100
▁uThixo 100
▁zabo 100
▁kwaye 100
▁Mungu 100
▁ces 100
▁kwabo 100
▁uthi 100
▁kila 100
mbo 100
▁only 100
aba 100
▁maka 100
▁Ama 100
▁lokela 100
▁bino 100
1 100
▁ng 100
▁sê 100
▁moi 100
▁nzela 100
impwemu 100
wu 100
di 100
▁kokuba 100
▁now 100
▁aho 100
▁6: 100
▁gusa 100
▁naye 100
▁tseo 100
▁iets 100
▁laat 100
▁On 100
▁could 100
▁sans 100
K 100
▁back 100
▁kozwa 100
▁bala 100
et 100
R 100
▁umutima 100
▁empa 100
▁ra 100
she 100
P 100
▁tozali 100
▁ná 100
▁abengi 100
▁monene 100
▁imbere 100
▁pia 100
▁ileng 100
▁imyaka 100
▁kuyo 100
▁work 100
▁alles 100
▁2. 100
▁hobane 100
▁umwe 100
▁bijanye 100
▁mobimba 100
▁Suid 100
us 100
▁umu 100
▁vyose 100
ivyo 100
lwe 100
▁ibi 100
▁wiwe 100
▁W 100
▁kahle 100
▁iyi 100
▁elimo 100
zwa 100
kho 100
▁28 100
▁kum 100
▁tsela 100
▁And 100
▁may 100
▁lakini 100
▁car 100
▁kopesa 100
▁way 100
▁place 100
▁moo 100
▁mara 100
▁well 100
▁mi 100
▁joang 100
st 100
▁habari 100
▁heel 100
▁ambayo 100
▁beste 100
▁ayo 100
▁nuwe 100
▁bula 100
▁ayi 100
▁Ivyo 100
▁juu 100
▁Luka 100
▁moment 100
▁andere 100
3 100
▁50 100
▁baya 100
▁ru 100
▁video 100
▁here 100
▁huu 100
▁matla 100
▁Pour 100
▁4. 100
ru 100
man 100
▁lilemo 100
▁oko 100
▁Mais 100
▁week 100
▁nta 100
or 100
▁alobaki 100
▁onze 100
▁first 100
▁non 100
▁ngokuba 100
▁maken 100
do 100
▁kufanele 100
fi 100
▁dis 100
H 100
tha 100
▁hu 100
▁yethu 100
▁pamo 100
▁Ca 100
▁need 100
▁yose 100
▁ntse 100
▁sika 100
▁huis 100
▁kufanya 100
▁mee 100
▁zich 100
▁abandi 100
▁kuka 100
▁hari 100
▁begin 100
▁hul 100
▁should 100
▁hun 100
▁taba 100
▁njengo 100
▁these 100
▁zakhe 100
▁wabo 100
▁fintu 100
▁part 100
▁ilya 100
▁ngoe 100
▁Serikali 100
▁But 100
▁wakho 100
▁ben 100
▁many 100
du 100
▁indawo 100
mwo 100
▁Ngaba 100
▁koloba 100
Ndenge 100
▁mwasi 100
▁ariko 100
tse 100
▁Soki 100
▁Ntango 100
▁aku 100
▁Bi 100
▁really 100
▁wali 100
▁alisema 100
▁My 100
▁awa 100
▁Nk 100
▁koku 100
▁Njengoba 100
su 100
ter 100
ent 100
▁ame 100
▁long 100
▁azi 100
F 100
▁Daar 100
el 100
▁basi 100
▁obu 100
▁nang 100
nda 100
j 100
▁mens 100
▁years 100
▁Ne 100
▁encore 100
▁koleka 100
▁ukucita 100
▁mtu 100
▁ethi 100
uku 100
▁kuhusu 100
▁water 100
▁engu 100
▁deux 100
▁best 100
▁ababe 100
▁kon 100
vu 100
gi 100
▁yayi 100
▁kuzo 100
▁Zi 100
▁akaba 100
▁ngisho 100
▁hand 100
▁mag 100
▁blog 100
▁molemo 100
▁26 100
▁ambao 100
▁ndakisa 100
▁manier 100
▁ibe 100
▁donc 100
— 100
pi 100
W 100
▁most 100
▁Ce 100
▁Du 100
▁mmoja 100
́ 100
▁ifintu 100
▁zal 100
▁fyonse 100
▁njani 100
rashobora 100
▁ukuphila 100
▁life 100
▁Me 100
▁mor 100
▁es 100
▁kale 100
▁amano 100
▁deel 100
▁lakhe 100
▁bolela 100
▁terug 100
▁keer 100
▁bose 100
pha 100
▁after 100
▁notre 100
fwile 100
▁KU 100
▁likoló 100
▁3. 100
▁gaat 100
▁omdat 100
ation 100
abo 100
▁julle 100
▁hamwe 100
▁ga 100
▁Te 100
▁lewe 100
▁us 100
▁take 100
▁imi 100
▁abaningi 100
V 100
▁eziningi 100
▁mij 100
▁mokolo 100
▁staan 100
▁hayo 100
▁zou 100
▁Van 100
▁miaka 100
4 100
▁atile 100
▁because 100
▁bakwe 100
▁27 100
L 100
▁ling 100
▁great 100
▁hele 100
▁5. 100
Afrika 100
▁eya 100
▁ajili 100
hla 100
▁hata 100
▁maloba 100
▁Hierdie 100
▁waba 100
an 100
▁aki 100
▁mensen 100
▁ivy 100
▁tsona 100
▁afise 100
hlala 100
▁kusho 100
▁weg 100
▁bophelo 100
▁koyeba 100
▁ezinye 100
▁va 100
jambo 100
▁bese 100
▁Xa 100
▁yaba 100
▁labo 100
▁Ngi 100
▁alleen 100
is 100
être 100
▁Lokhu 100
hu 100
▁kind 100
▁Muri 100
▁biwe 100
▁ans 100
▁gukora 100
▁40 100
▁Sy 100
▁makanisi 100
▁elke 100
▁fois 100
▁2017 100
it 100
▁point 100
▁joaloka 100
▁Ye 100
▁uur 100
▁esengo 100
▁land 100
▁koko 100
▁boek 100
▁lefatše 100
▁kondima 100
▁Satana 100
op 100
▁Empa 100
▁ukwenza 100
▁going 100
▁Leha 100
▁mbalimbali 100
▁ekhasini 100
der 100
▁ngempela 100
▁Roma 100
▁hona 100
Ba 100
:// 100
▁benshi 100
▁angu 100
▁before 100
▁cela 100
hi 100
ons 100
▁ukwa 100
▁ina 100
▁sou 100
▁day 100
▁igama 100
den 100
ngu 100
ry 100
▁Yango 100
▁moke 100
ten 100
▁Al 100
▁nete 100
," 100
▁rup 100
▁10. 100
dat 100
▁Kuber 100
ine 100
▁mbula 100
▁John 100
▁moea 100
▁imali 100
▁faut 100
▁Dat 100
org 100
▁wij 100
▁kubo 100
▁nieuwe 100
▁being 100
▁umwana 100
▁Ge 100
▁Zo 100
▁then 100
▁enige 100
▁eena 100
▁Batatoli 100
▁biloko 100
▁Ta 100
▁wakwe 100
▁Ze 100
▁United 100
▁enga 100
▁hapa 100
▁31 100
▁BakaJehova 100
▁sien 100
▁gi 100
suka 100
▁where 100
mbi 100
▁ese 100
▁cas 100
▁ndani 100
▁ninshi 100
▁100 100
▁wananchi 100
▁serikali 100
▁last 100
▁owa 100
▁teng 100
▁bontša 100
▁iBhayibheli 100
▁amandla 100
▁vie 100
isa 100
nde 100
▁kunt 100
▁Lu 100
▁7. 100
▁sababu 100
▁year 100
▁huyo 100
▁staat 100
▁vers 100
▁ubuzima 100
▁8. 100
▁yavuze 100
neminyaka 100
▁ngaphambi 100
▁kubwa 100
▁those 100
▁app 100
▁Nge 100
▁manje 100
▁Do 100
▁Bu 100
▁6. 100
▁Salaam 100
▁ikintu 100
▁post 100
▁mpasi 100
▁imwe 100
▁kwati 100
▁monde 100
▁Yo 100
▁lula 100
genxa 100
▁States 100
▁kwanza 100
▁hali 100
▁bolingo 100
▁KWA 100
▁kulo 100
▁ryo 100
▁ndako 100
▁entre 100
▁bon 100
▁yao 100
▁teen 100
▁kule 100
▁29 100
_ 100
▁Als 100
▁tyd 100
▁12. 100
▁moins 100
▁umulimo 100
▁bena 100
▁vos 100
▁kuruta 100
▁Un 100
ele 100
▁wethu 100
▁down 100
▁kosalela 100
▁Here 100
▁its 100
fe 100
▁mibale 100
▁tijd 100
▁1, 100
▁Kuti 100
▁right 100
able 100
▁She 100
▁base 100
vi 100
▁bandeko 100
▁Naho 100
▁NW 100
▁website 100
▁emva 100
▁nodig 100
▁toch 100
▁woku 100
▁ime 100
▁9. 100
▁kwaku 100
▁walio 100
▁hantle 100
▁II 100
▁# 100
▁Futhi 100
▁nzoto 100
▁zoku 100
▁too 100
▁bakeng 100
▁foto 100
▁ngesikhathi 100
▁dé 100
▁kutila 100
▁Oku 100
▁online 100
▁quand 100
▁muda 100
▁Davidi 100
▁tegen 100
▁zelf 100
bona 100
ile 100
sengeli 100
▁BA 100
▁rw 100
▁ara 100
▁vind 100
▁Ngoku 100
▁look 100
▁uyu 100
▁kies 100
▁wote 100
▁ube 100
▁mugabo 100
▁abena 100
▁toujours 100
▁Ukuze 100
▁nziza 100
▁kubona 100
▁mes 100
▁none 100
wo 100
▁What 100
▁dire 100
▁kosalisa 100
▁12: 100
▁There 100
▁wanneer 100
▁werd 100
▁Voor 100
of 100
▁yokuba 100
hle 100
▁ine 100
▁plan 100
▁sera 100
▁off 100
▁Kungani 100
▁LA 100
▁kweli 100
▁ako 100
▁uYesu 100
▁lot 100
▁mobali 100
▁lokasa 100
▁Er 100
▁po 100
▁plek 100
▁Cinshi 100
umu 100
▁ezingu 100
▁soit 100
▁14. 100
▁ebe 100
▁did 100
▁lyonse 100
▁such 100
▁Om 100
▁still 100
ren 100
▁Ubu 100
▁Lipaki 100
▁ambaye 100
▁Ico 100
as 100
▁wie 100
qu 100
▁nama 100
▁maklik 100
▁thusa 100
cha 100
à 100
▁say 100
▁libota 100
▁Deze 100
▁wao 100
▁mooi 100
▁était 100
▁ukwishiba 100
▁inshita 100
▁skakel 100
▁zethu 100
▁elongo 100
▁13. 100
▁find 100
▁lebaka 100
▁made 100
Ma 100
▁numa 100
▁baye 100
▁amazwi 100
▁Ezi 100
▁avoir 100
▁komonisa 100
▁11. 100
at 100
▁feta 100
▁eyayi 100
▁umntu 100
funa 100
▁rwa 100
ait 100
▁Vous 100
kha 100
▁kuyi 100
▁naba 100
▁steeds 100
▁kwalokho 100
▁little 100
▁UNkulunkulu 100
eni 100
5 100
ende 100
▁komen 100
▁17. 100
▁nyuma 100
▁muulu 100
▁tokoki 100
30 100
▁question 100
▁lekker 100
▁Bokonzi 100
▁Nangu 100
ils 100
▁service 100
▁vi 100
▁something 100
▁Katika 100
sh 100
▁iemand 100
cho 100
▁avait 100
▁Nous 100
▁seng 100
▁endaweni 100
tuma 100
phi 100
▁paar 100
▁York 100
▁soku 100
▁through 100
▁Dis 100
▁yena 100
ez 100
▁yonse 100
▁10: 100
▁sakhe 100
▁ngemva 100
▁eza 100
▁Y 100
▁mambo 100
▁phambi 100
▁things 100
▁Ja 100
▁16. 100
kazi 100
▁avant 100
▁Ver 100
▁beaucoup 100
▁ukucila 100
▁11: 100
▁lonke 100
▁bangata 100
▁waarin 100
▁Israele 100
▁bene 100
zwe 100
ty 100
▁yako 100
▁kwakho 100
lik 100
▁gesê 100
ama 100
fika 100
langa 100
▁enkulu 100
ch 100
▁Habari 100
▁33 100
▁information 100
8 100
ts 100
ck 100
aho 100
▁For 100
pu 100
▁Ici 100
▁webwerf 100
6 100
▁izo 100
thu 100
cu 100
▁apho 100
▁ndlela 100
▁phezu 100
▁trop 100
▁koffie 100
▁love 100
Z 100
▁avuga 100
▁few 100
▁2016 100
▁ngeke 100
▁kosakola 100
ibi 100
7 100
lingile 100
ndo 100
▁lakho 100
▁echt 100
▁geld 100
▁Kanshi 100
▁ubwo 100
▁bua 100
était 100
lenga 100
▁rien 100
▁vol 100
▁p 100
▁ale 100
▁bly 100
▁mis 100
che 100
like 100
nu 100
▁possible 100
▁quelques 100
▁kupata 100
▁bintu 100
▁nooit 100
▁fine 100
▁amaKristu 100
▁kaYehova 100
▁kimwe 100
▁None 100
▁mal 100
▁eigen 100
▁Yini 100
▁Bakreste 100
▁hou 100
▁anga 100
▁drie 100
▁wena 100
▁later 100
▁lesi 100
▁kunjalo 100
▁wengi 100
▁anders 100
The 100
▁kutoa 100
▁15. 100
▁nshiku 100
▁là 100
▁same 100
weni 100
▁mposa 100
▁leqepheng 100
▁Nte 100
▁Mulandu 100
▁baoyo 100
▁gratis 100
▁altijd 100
▁mboka 100
▁Nu 100
▁bamo 100
▁Umuntu 100
▁lefatšeng 100
▁ithi 100
hamba 100
▁mama 100
▁batla 100
▁wame 100
▁Jesus 100
▁ngata 100
▁mosebetsi 100
▁wewe 100
▁hoja 100
▁fimo 100
▁alors 100
▁Bato 100
▁@ 100
▁sasi 100
!! 100
▁kuze 100
▁voir 100
▁owaye 100
▁kinders 100
▁contact 100
▁hizo 100
▁Ngoko 100
J 100
▁32 100
ont 100
▁ingingo 100
▁uyo 100
▁kula 100
▁They 100
▁Cha 100
▁fumana 100
af 100
▁hivi 100
▁kumwenako 100
▁dink 100
▁7: 100
▁lolenge 100
▁sembo 100
▁gee 100
▁Yakobo 100
▁elobi 100
▁own 100
▁world 100
▁ja 100
▁maisha 100
▁ngoko 100
▁zien 100
▁CCM 100
▁zazi 100
ar 100
▁ambapo 100
▁jambo 100
▁men 100
landa 100
mbe 100
▁oop 100
▁haeba 100
▁cishinka 100
land 100
▁got 100
les 100
▁jour 100
▁après 100
▁unga 100
▁self 100
▁toon 100
ana 100
▁mulimo 100
▁Elle 100
▁Is 100
▁wam 100
kwazi 100
▁Lokola 100
▁kuNkulunkulu 100
kwi 100
▁tseba 100
▁abantwana 100
▁nokuthi 100
ée 100
▁bohlokoa 100
▁siya 100
▁ubwa 100
▁Abanye 100
▁2015 100
▁Ngemv 100
▁come 100
▁sebelisa 100
▁kwethu 100
▁umoya 100
▁sure 100
akarorero 100
▁joale 100
▁contre 100
▁musango 100
▁déjà 100
▁abafundi 100
ico 100
▁verder 100
▁mupashi 100
▁Shetani 100
ken 100
▁Nakuba 100
▁iminyaka 100
▁[...] 100
00 100
▁depuis 100
au 100
▁isimo 100
▁Hoe 100
▁yetu 100
▁bazo 100
▁jijini 100
▁komona 100
▁Une 100
▁sonde 100
▁yakwe 100
▁13: 100
▁Dan 100
▁Ali 100
▁sonke 100
▁That 100
▁sous 100
lele 100
▁icine 100
▁hard 100
▁Mwana 100
▁Kabili 100
▁filya 100
▁bila 100
▁ten 100
▁tatu 100
▁eens 100
▁beter 100
▁lisangá 100
gira 100
▁never 100
▁mikolo 100
▁bafise 100
▁tosengeli 100
▁ukufunda 100
▁bá 100
▁hadi 100
▁zoals 100
▁fimbi 100
tufwile 100
▁waki 100
▁kontak 100
▁Gu 100
▁sena 100
▁oo 100
▁nomba 100
▁mang 100
▁toutes 100
Ha 100
tho 100
▁ils 100
kile 100
ster 100
▁gushika 100
▁mobiele 100
▁sebele 100
▁chini 100
▁mayele 100
funda 100
▁eka 100
▁v 100
▁ZA 100
▁abazali 100
▁Facebook 100
▁enye 100
▁60 100
▁taarifa 100
▁una 100
▁kutokana 100
up 100
▁autres 100
wi 100
▁kumenya 100
▁toute 100
▁Zanzibar 100
▁ntho 100
▁binnen 100
▁fa 100
Y 100
▁Ook 100
zalaki 100
▁start 100
ubu 100
ig 100
▁bakho 100
▁ngakho 100
▁ainsi 100
tumye 100
iki 100
▁1. 100
▁iryo 100
▁dont 100
▁cilonganino 100
▁wenye 100
jo 100
tsi 100
▁nkombo 100
▁kupitia 100
▁cose 100
▁grand 100
▁Pauluse 100
▁France 100
▁azo 100
▁Taifa 100
▁Z 100
▁kukho 100
▁important 100
▁Internet 100
arop 100
▁Dkt 100
9 100
▁kulya 100
▁Yi 100
▁every 100
▁mai 100
jes 100
▁petit 100
▁izikhathi 100
ciye 100
▁around 100
▁pano 100
▁apo 100
rs 100
▁hatua 100
▁wengine 100
▁watoto 100
▁top 100
▁internet 100
▁uye 100
▁home 100
▁erg 100
▁bushiku 100
▁Mi 100
▁phambili 100
▁eng 100
▁school 100
▁wetu 100
▁hicho 100
▁mpamba 100
bangela 100
▁amesema 100
▁hoo 100
▁graag 100
▁vyari 100
▁huduma 100
▁maana 100
▁komt 100
▁nokuba 100
▁yali 100
▁wese 100
▁kintu 100
▁uthando 100
▁Noma 100
▁nabantu 100
▁wacu 100
▁70 100
▁might 100
basavyi 100
▁kui 100
▁Indlela 100
▁services 100
▁while 100
▁open 100
▁moeten 100
xa 100
mona 100
qala 100
▁ebele 100
▁lezi 100
▁zao 100
▁zakho 100
nk 100
▁bile 100
▁Kreste 100
phe 100
▁ré 100
▁mpya 100
▁“[ 100
▁musi 100
▁UJesu 100
▁kuvuga 100
▁comment 100
▁Za 100
and 100
▁esithi 100
ton 100
▁persoon 100
▁Adamu 100
▁wanao 100
tte 100
▁loo 100
thetha 100
▁Bible 100
vuga 100
▁akoki 100
▁lona 100
▁asi 100
▁baadhi 100
▁likaNkulunkulu 100
▁again 100
▁njia 100
▁omkhulu 100
▁Ezali 100
kubeni 100
▁must 100
▁nezi 100
▁akiwa 100
▁fedha 100
▁eie 100
ijuru 100
▁UJehova 100
▁chose 100
▁Muso 100
▁pro 100
▁kumu 100
▁used 100
chi 100
lisa 100
▁(1) 100
▁mohlala 100
▁nsuka 100
▁namuhla 100
▁vraiment 100
▁ezinhle 100
vo 100
ishengero 100
son 100
▁chama 100
bela 100
▁urukundo 100
Ni 100
▁free 100
ju 100
▁atari 100
▁ukula 100
▁teks 100
▁viongozi 100
▁reg 100
▁Dans 100
▁Ndi 100
▁grote 100
▁sit 100
▁better 100
▁yami 100
▁singa 100
▁Musa 100
▁Petro 100
▁uta 100
Dit 100
▁ifwe 100
▁Wo 100
▁Hij 100
▁uPawulu 100
▁Ifoto 100
end 100
▁hili 100
▁Ifyo 100
▁super 100
▁cali 100
am 100
▁tsohle 100
▁public 100
▁yase 100
▁Au 100
▁yiwe 100
▁travail 100
▁ifingi 100
▁Bufumu 100
ring 100
▁Of 100
▁read 100
▁kusukela 100
▁nafasi 100
▁wawu 100
▁ona 100
▁dhidi 100
▁always 100
▁kutu 100
▁personnes 100
▁leha 100
▁0 100
▁Mhe 100
▁mbali 100
▁mois 100
▁bao 100
▁kumelwe 100
▁turi 100
▁bakoki 100
▁Africa 100
vous 100
Le 100
▁nos 100
Ku 100
▁hart 100
▁efe 100
▁Muungano 100
▁old 100
▁eloko 100
Yehova 100
▁lerato 100
sie 100
mela 100
▁Mwenyekiti 100
▁mali 100
▁igikorwa 100
▁ema 100
▁neem 100
werk 100
▁web 100
▁vyinshi 100
▁glo 100
▁cila 100
▁haki 100
Si 100
▁koppie 100
dla 100
▁cimo 100
▁wase 100
ies 100
▁yenu 100
▁Hier 100
▁eu 100
▁Ivyabona 100
tje 100
▁8: 100
▁dinge 100
▁nsansa 100
▁kala 100
▁ukudla 100
@ 100
▁klein 100
ká 100
▁kuji 100
▁ozali 100
▁yokuthi 100
▁akhe 100
▁alandile 100
hui 100
▁kuwo 100
▁zote 100
▁Icikope 100
gen 100
▁bayo 100
aan 100
▁kera 100
▁kumwe 100
▁ukufuma 100
▁ibihe 100
▁amaka 100
ette 100
▁Kwi 100
▁thing 100
▁ngangi 100
▁sais 100
▁ukwizera 100
um 100
▁vreemdelinge 100
ny 100
▁mkuu 100
▁etc 100
▁leurs 100
▁misala 100
ek 100
▁regoor 100
▁iliyo 100
▁kanti 100
▁nshila 100
▁media 100
▁ubudala 100
▁kubalilapo 100
que 100
zali 100
▁ngaba 100
ir 100
▁kozanga 100
+ 100
▁Ra 100
▁uo 100
▁CHA 100
▁Ngokwesibonelo 100
leni 100
▁Hulle 100
▁18. 100
▁dood 100
▁itseng 100
▁data 100
khe 100
▁usuku 100
▁umhlaba 100
ner 100
▁apesaki 100
▁rond 100
▁found 100
▁letsatsi 100
▁zake 100
▁doit 100
▁inkuru 100
▁eneo 100
▁lowo 100
▁rimwe 100
▁hem 100
▁lees 100
▁hebt 100
▁nahana 100
▁Mkoa 100
ity 100
▁ixesha 100
▁bazi 100
▁jamais 100
die 100
Ke 100
▁wenza 100
▁19. 100
▁koyekola 100
▁Finshi 100
lweni 100
eren 100
▁omunye 100
▁ithuta 100
▁naino 100
▁nabanye 100
ling 100
per 100
▁laten 100
▁mawa 100
Ubwami 100
▁kufuneka 100
▁ukwo 100
▁Magufuli 100
▁15: 100
leka 100
▁dié 100
▁goeie 100
nd 100
▁face 100
▁Ifi 100
▁tuka 100
▁alikuwa 100
▁naam 100
▁gutuma 100
▁iqiniso 100
▁each 100
▁phansi 100
▁gehad 100
▁Umoja 100
baar 100
▁nsuma 100
▁goede 100
▁X 100
▁fin 100
▁2014 100
uit 100
zu 100
▁Jamhuri 100
bha 100
▁emonisi 100
zwi 100
▁ervaar 100
▁kwabantu 100
▁sona 100
gera 100
shwa 100
▁kuko 100
WA 100
▁ton 100
▁Co 100
▁bethu 100
▁geboren 100
▁autre 100
X 100
▁nalimo 100
▁ukuthola 100
▁minder 100
▁does 100
▁wazi 100
lla 100
fo 100
▁Nomba 100
▁bonne 100
▁put 100
▁Zaburi 100
▁kanjalo 100
▁Dawidi 100
ise 100
▁hoor 100
▁buzima 100
ugu 100
▁leven 100
▁Kuba 100
▁14: 100
▁kuku 100
▁Atako 100
▁35 100
▁next 100
▁sehemu 100
▁Ngaphezu 100
▁ngalo 100
▁ziya 100
▁Ga 100
▁nazalaki 100
▁kakuhle 100
▁également 100
▁nsango 100
▁South 100
▁abakirisu 100
▁Eli 100
▁ekhaya 100
▁fyalo 100
▁compte 100
▁baklisto 100
10 100
▁sikhathi 100
Mu 100
nikeza 100
bizwa 100
▁haya 100
▁uzo 100
taka 100
▁Nzokande 100
▁When 100
▁ngokushesha 100
ement 100
▁film 100
▁almal 100
▁Klisto 100
▁hapo 100
és 100
▁izingane 100
▁nse 100
▁feel 100
▁mpaka 100
▁jours 100
lala 100
▁é 100
▁Bij 100
▁koluka 100
▁why 100
▁uba 100
▁ntle 100
▁Katibu 100
▁wami 100
▁kucita 100
▁sibe 100
ut 100
▁snel 100
▁karolo 100
▁ntanshi 100
▁mano 100
▁kwali 100
igihe 100
▁oFakazi 100
▁ufuna 100
▁gemaak 100
▁zeer 100
sala 100
age 100
▁qala 100
?" 100
▁gelede 100
▁business 100
▁bira 100
▁ukuri 100
mbu 100
▁jana 100
▁tsena 100
▁Mwa 100
▁sebe 100
Mo 100
▁Umu 100
▁Isithombe 100
▁venster 100
▁ukwazi 100
▁kabla 100
hlo 100
▁20. 100
▁kyk 100
▁aliye 100
▁asalaki 100
sela 100
▁Iyo 100
▁jij 100
▁kuu 100
autres 100
▁9: 100
▁izindaba 100
▁spesiale 100
▁Wizara 100
tegerezwa 100
▁fana 100
▁Tsa 100
▁tšoanang 100
té 100
▁under 100
▁bushe 100
vela 100
▁World 100
bele 100
▁nom 100
ting 100
▁bit 100
▁g 100
▁another 100
▁didn 100
▁page 100
▁imo 100
▁eko 100
▁har 100
▁personne 100
▁different 100
▁maji 100
▁Gratis 100
▁informatie 100
▁Petero 100
▁usanga 100
▁vraag 100
shika 100
▁altyd 100
nyu 100
▁phela 100
▁Chatroulette 100
▁plaats 100
▁hlokomela 100
▁Par 100
▁bathi 100
▁yote 100
▁kutumia 100
▁nayo 100
▁tsoela 100
▁Funda 100
ad 100
▁aantal 100
▁mkutano 100
▁bohle 100
▁awu 100
abandi 100
▁Apo 100
▁leyo 100
▁Yohane 100
▁Kahoo 100
▁amashiwi 100
▁gewoon 100
▁both 100
▁Marekani 100
saba 100
▁far 100
ive 100
20 100
* 100
▁ngazo 100
▁since 100
▁Maria 100
▁eleki 100
▁sheria 100
▁team 100
▁Wij 100
▁yenye 100
▁course 100
cela 100
▁lika 100
▁kunga 100
Ka 100
▁article 100
▁lintu 100
▁mettre 100
▁without 100
▁support 100
▁auto 100
▁tloha 100
▁f 100
▁huku 100
▁nyingi 100
▁wine 100
▁cet 100
▁muhimu 100
▁eye 100
▁zonder 100
▁inayo 100
▁21. 100
ngwa 100
▁Phakathi 100
▁sokuba 100
▁kubantu 100
▁pu 100
▁game 100
▁iti 100
▁give 100
▁Waye 100
▁demande 100
▁aga 100
nyi 100
▁www 100
▁high 100
▁elithi 100
▁gemaakt 100
im 100
▁nya 100
▁mogelijk 100
▁iBhayibhile 100
▁amanzi 100
▁Haeba 100
▁timu 100
▁Q 100
bonisa 100
tie 100
▁athi 100
▁em 100
▁akukho 100
bare 100
▁English 100
▁igiki 100
▁zij 100
rwa 100
▁miso 100
▁looking 100
▁kino 100
▁bora 100
▁nazo 100
thatha 100
▁change 100
▁Ben 100
ic 100
▁yitwa 100
▁ezazi 100
leta 100
buza 100
khu 100
▁artikel 100
▁keep 100
▁3, 100
▁elikya 100
▁prendre 100
▁Kristo 100
▁Aka 100
▁waren 100
▁alobi 100
▁end 100
▁2013 100
15 100
Ho 100
De 100
▁Ezinye 100
▁izina 100
▁kuwe 100
▁kaJehova 100
▁questions 100
▁Abo 100
eau 100
▁Inte 100
▁avez 100
▁onse 100
▁geval 100
khona 100
▁pense 100
▁basusu 100
▁oud 100
▁Umsebenzi 100
▁kwezi 100
nguqulelo 100
ion 100
▁cishe 100
▁Mana 100
▁mjini 100
▁vinden 100
▁lelapa 100
▁premier 100
Bo 100
hlobo 100
▁ngaphansi 100
umuntu 100
tsa 100
▁Noko 100
▁Nta 100
▁Po 100
▁partie 100
▁ezweni 100
kela 100
▁Jan 100
▁bayekoli 100
▁sisi 100
▁rata 100
▁mikanda 100
▁ita 100
▁limo 100
▁zeker 100
▁let 100
▁leli 100
▁polele 100
▁bakaba 100
▁kitu 100
con 100
▁ikiwa 100
▁savoir 100
▁How 100
▁ukholo 100
▁17: 100
▁MA 100
▁buka 100
▁uchaguzi 100
?” 100
▁bam 100
▁Eva 100
▁twi 100
▁vu 100
▁mokonzi 100
▁ethile 100
▁away 100
▁Emva 100
▁geven 100
▁maikutlo 100
▁Wilaya 100
▁Ri 100
▁ngokwe 100
▁ter 100
▁chez 100
lela 100
▁All 100
▁iingi 100
▁mabele 100
ns 100
▁extra 100
tso 100
▁Mkurugenzi 100
▁ulwazi 100
". 100
▁maeneo 100
ivy 100
▁nawe 100
▁othile 100
▁ezininzi 100
▁Tower 100
▁esa 100
ings 100
▁wale 100
▁nani 100
▁kukhona 100
▁three 100
▁lupwa 100
▁ingene 100
▁days 100
▁yacu 100
▁Kenya 100
▁vrou 100
ela 100
zama 100
▁vais 100
▁chaque 100
zizwa 100
▁200 100
dag 100
▁nguya 100
▁Nederland 100
▁nguvu 100
▁ukuvuga 100
▁kokanisa 100
▁incwadi 100
▁abafyashi 100
▁nee 100
▁kuthi 100
▁etsang 100
▁uli 100
▁Setšoantšo 100
▁hoop 100
▁bwiwe 100
cht 100
▁koyoka 100
▁nezinye 100
▁njengoko 100
▁name 100
▁maand 100
phuma 100
▁elimu 100
▁Dr 100
▁mushilo 100
▁wenu 100
nl 100
▁ndio 100
Chat 100
▁avons 100
kwenza 100
▁Google 100
▁Fi 100
dinga 100
▁kajeno 100
▁mieux 100
▁ngokuvamile 100
▁abali 100
▁Mheshimiwa 100
▁simple 100
▁vanaf 100
▁School 100
▁yesu 100
▁kuJehova 100
▁Hi 100
▁etali 100
▁ivuga 100
jibu 100
▁im 100
▁yayo 100
▁inga 100
▁80 100
▁samen 100
▁reste 100
▁Pro 100
!!! 100
▁mibele 100
▁genoeg 100
▁nyingine 100
iyo 100
▁24: 100
▁bamu 100
qa 100
▁tw 100
▁mashiwi 100
dlula 100
▁zina 100
▁eienskappe 100
▁peuvent 100
▁amaningi 100
▁gikorwa 100
!" 100
▁Pali 100
▁niks 100
▁tuna 100
▁mchezo 100
▁zit 100
▁nakong 100
▁done 100
dala 100
ona 100
▁naho 100
▁mosali 100
pho 100
▁lang 100
▁webcam 100
▁esengeli 100
▁set 100
▁niveau 100
▁Soma 100
q 100
kala 100
▁Ru 100
▁twebwe 100
▁ceux 100
▁ukwabula 100
▁kinderen 100
▁Tata 100
▁kwenda 100
▁baninga 100
▁grond 100
ins 100
▁Khona 100
▁2012 100
▁buurt 100
▁bent 100
▁family 100
▁één 100
▁ekuphileni 100
▁bring 100
▁okwa 100
▁social 100
qo 100
▁Bena 100
▁biciye 100
▁rekening 100
▁mbili 100
▁able 100
▁between 100
▁puis 100
nto 100
by 100
ux 100
▁majambo 100
▁lisolo 100
▁nti 100
▁uwu 100
▁mateya 100
▁banga 100
▁bohloko 100
▁daarvan 100
▁type 100
▁boo 100
▁using 100
▁Hari 100
rd 100
mele 100
▁Naibu 100
▁tell 100
▁Whats 100
▁plusieurs 100
misa 100
▁willen 100
▁kotalela 100
▁37 100
▁achter 100
▁bekend 100
▁Media 100
▁bobele 100
if 100
▁Man 100
▁ndeko 100
ou 100
▁simu 100
ishi 100
bika 100
▁Liloba 100
Li 100
▁Mugabo 100
zie 100
▁number 100
▁kura 100
▁5, 100
▁kaThixo 100
▁enough 100
▁mbongo 100
nta 100
▁jusqu 100
..... 100
▁ala 100
▁6, 100
▁pad 100
▁Isirayeli 100
▁lase 100
▁imisebenzi 100
▁Um 100
12 100
om 100
▁500 100
▁kun 100
bala 100
▁voel 100
▁sens 100
▁kungani 100
▁suite 100
▁kimya 100
ness 100
▁khōlō 100
▁kitoko 100
▁size 100
bonakala 100
▁mokano 100
▁least 100
▁shule 100
▁yoba 100
▁leuk 100
landela 100
▁uu 100
▁kerk 100
▁isonde 100
▁inyuma 100
▁Nda 100
▁Wathi 100
▁nzima 100
sanga 100
▁ubani 100
▁bolumeli 100
ées 100
▁Webwerf 100
lula 100
▁Ab 100
▁thought 100
▁gesels 100
▁Yintoni 100
▁Amerika 100
▁droit 100
▁kwam 100
ler 100
▁liefde 100
▁elkaar 100
▁benga 100
▁ngokuphelele 100
▁Twa 100
▁Society 100
▁ukufika 100
Via 100
val 100
sebenza 100
▁kumele 100
▁http 100
▁familie 100
lile 100
▁though 100
▁May 100
▁minutes 100
▁Bokreste 100
▁modus 100
▁ubomi 100
▁elikhulu 100
▁amajambo 100
▁IBhayibheli 100
▁ever 100
▁maendeleo 100
▁hasa 100
▁bwakwe 100
kula 100
▁mooie 100
▁nase 100
▁gutyo 100
▁mkubwa 100
▁parce 100
▁cari 100
▁x 100
mp 100
sele 100
▁pene 100
▁eyi 100
▁speel 100
▁kolanda 100
▁tumelo 100
▁show 100
▁jamii 100
qhubeka 100
▁Bunge 100
▁wawe 100
ë 100
We 100
▁kamoo 100
▁h 100
▁Yebo 100
▁afin 100
▁quoi 100
▁tlameha 100
▁vile 100
▁abasambi 100
toa 100
lle 100
▁biashara 100
▁Esi 100
kholelwa 100
▁kabisa 100
▁24. 100
▁21: 100
▁izwe 100
▁TV 100
pro 100
▁bariko 100
▁St 100
▁spel 100
▁sonder 100
▁Jo 100
▁indalama 100
khonza 100
▁34 100
▁enfants 100
▁bamwebamwe 100
▁mweo 100
mpi 100
▁juste 100
”. 100
▁vyerekeye 100
uwo 100
fana 100
▁half 100
▁egter 100
NI 100
▁picha 100
▁vorm 100
▁litaba 100
▁weten 100
▁Vir 100
▁getting 100
▁zabantu 100
▁verschillende 100
▁tó 100
▁trouve 100
▁mibali 100
▁Ese 100
ɛ 100
▁16: 100
buye 100
dra 100
▁brand 100
▁jullie 100
▁onke 100
-1 100
▁Maak 100
▁Mose 100
▁Vyongeye 100
▁doing 100
▁real 100
▁Deel 100
▁9, 100
▁isha 100
▁ezo 100
▁ume 100
gwa 100
▁coup 100
▁pili 100
▁15, 100
▁ezithile 100
▁ngaphezu 100
cinga 100
▁Mar 100
▁Israyeli 100
lia 100
▁esikhulu 100
▁nouveau 100
▁yangu 100
▁vragen 100
len 100
▁mabelé 100
▁19: 100
▁having 100
▁tijdens 100
▁leer 100
rie 100
▁ngaso 100
▁nari 100
▁Go 100
▁kushimikila 100
▁kulongana 100
▁bako 100
▁toi 100
▁tsoa 100
sta 100
▁hawa 100
▁kuguma 100
▁gani 100
tes 100
men 100
kwiye 100
▁Mpe 100
bomba 100
▁Afrikaanse 100
▁project 100
▁bado 100
▁45 100
▁wereld 100
▁vier 100
▁pays 100
▁stad 100
▁Hata 100
▁min 100
▁imbila 100
▁18: 100
bijanye 100
▁Kugira 100
▁engi 100
▁lokuqala 100
▁Kirisitu 100
▁kwo 100
▁mantsoe 100
▁laba 100
▁kune 100
▁At 100
▁experience 100
▁kennis 100
▁cinshi 100
▁ngama 100
▁yokuqala 100
▁ambazo 100
▁Woba 100
▁kwenzeka 100
▁+ 100
des 100
ist 100
▁ezimbili 100
▁con 100
▁vaak 100
▁ino 100
nce 100
ige 100
ak 100
▁kokende 100
▁Mat 100
beka 100
▁ezala 100
mb 100
▁live 100
▁big 100
▁ndawo 100
▁bafwile 100
▁kungenzeka 100
▁tena 100
▁volgens 100
▁zinga 100
lokhu 100
▁kwamamaza 100
▁lefu 100
▁kipindi 100
▁Hu 100
▁abaninzi 100
▁mwenye 100
▁ukubona 100
▁nali 100
▁wako 100
▁Ica 100
▁cause 100
▁taifa 100
▁lōna 100
▁Moto 100
▁ezalaka 100
▁try 100
▁20: 100
▁mbele 100
mane 100
ré 100
▁grande 100
▁fyali 100
▁uza 100
aux 100
▁Pi 100
▁njenga 100
mali 100
▁4, 100
▁wanje 100
▁batsoali 100
▁23. 100
▁bambula 100
▁bami 100
▁Dk 100
▁mokanda 100
▁April 100
▁rapport 100
▁reeds 100
▁ukusambilila 100
▁indoda 100
▁kommentaar 100
autre 100
▁ukuzi 100
eur 100
▁basaleli 100
▁lwakhe 100
▁peux 100
ep 100
▁plaas 100
▁ingorane 100
▁kancane 100
▁Watch 100
atie 100
▁engumba 100
▁direct 100
▁première 100
▁imilimo 100
▁lieu 100
▁besoin 100
▁meeste 100
▁Paul 100
▁ekólo 100
▁moes 100
▁kiasi 100
▁mobu 100
▁situation 100
-19 100
phakathi 100
mer 100
▁tweede 100
tel 100
▁uyi 100
▁book 100
▁hloka 100
ngena 100
MA 100
▁daardie 100
▁umthetho 100
▁stel 100
tjie 100
▁aze 100
▁biri 100
▁ervaring 100
▁emsebenzini 100
▁uburyo 100
▁soko 100
▁ezinga 100
▁pret 100
▁during 100
▁bimwe 100
▁ua 100
▁wanafunzi 100
▁jouw 100
▁small 100
▁afya 100
▁MO 100
pata 100
▁mna 100
▁One 100
▁sebetsa 100
▁amadoda 100
▁wi 100
em 100
▁mwezi 100
SA 100
▁holo 100
swa 100
▁yaciye 100
avais 100
▁person 100
phu 100
maki 100
thanda 100
▁onga 100
▁chelete 100
▁usizo 100
▁money 100
▁main 100
19 100
▁fact 100
▁actually 100
▁kotala 100
▁kuqala 100
La 100
▁ulwa 100
fuma 100
▁baboti 100
weza 100
▁gituma 100
▁care 100
avoir 100
▁boyokani 100
▁sakho 100
▁kotánga 100
▁Umwana 100
▁mwe 100
▁An 100
ure 100
▁already 100
▁Chama 100
▁14, 100
▁probeer 100
▁Lees 100
▁ela 100
▁basali 100
▁ntiba 100
▁Manje 100
▁hê 100
▁ao 100
nikela 100
gcina 100
Ivyabona 100
ita 100
mwa 100
▁woord 100
▁misato 100
hlela 100
▁working 100
kuba 100
▁full 100
ven 100
▁Makambo 100
▁product 100
▁cours 100
▁mwisho 100
▁kwiga 100
0 100
▁Matayo 100
▁forum 100
▁ezinkulu 100
▁Batho 100
▁ugu 100
▁ezine 100
ninzi 100
▁mikakatano 100
▁ababa 100
▁kuza 100
▁hope 100
▁boholo 100
▁izinsuku 100
▁SA 100
& 100
▁dufise 100
▁Yobo 100
▁etsahala 100
▁moontlik 100
▁content 100
50 100
▁upande 100
▁wandi 100
▁mupepi 100
ité 100
ia 100
▁iNkosi 100
▁antwoord 100
▁iye 100
kwata 100
fwa 100
article 100
▁zinto 100
▁mpiko 100
▁abadala 100
▁believe 100
▁menshi 100
▁Belengeni 100
▁nakho 100
▁projet 100
gama 100
▁Ofisi 100
▁koteya 100
▁okufanele 100
▁Con 100
▁basis 100
▁came 100
▁Izinto 100
▁hang 100
▁pouvez 100
▁amu 100
▁36 100
ini 100
▁kwama 100
▁nko 100
zela 100
cita 100
▁anything 100
nje 100
▁job 100
▁passer 100
▁Lakini 100
▁uze 100
tjes 100
huis 100
▁boumeli 100
id 100
▁side 100
bone 100
▁nabi 100
▁pouvoir 100
phendula 100
▁hagati 100
▁losambo 100
khula 100
▁maakt 100
▁8, 100
▁code 100
▁local 100
▁Israel 100
▁Maloba 100
▁okoki 100
▁kuki 100
▁einde 100
▁akarorero 100
dia 100
▁By 100
pen 100
▁rest 100
▁vijana 100
mashumi 100
▁bokonzi 100
▁ububi 100
▁aina 100
twa 100
▁opsies 100
▁bar 100
▁loi 100
▁molao 100
▁lutho 100
sen 100
▁agter 100
▁uM 100
▁hammoho 100
▁ithuba 100
▁saba 100
▁lumela 100
▁monna 100
▁ezintathu 100
Q 100
▁tofauti 100
▁2011 100
▁% 100
▁Amalumbo 100
▁ngaphakathi 100
▁kamere 100
ger 100
▁omnye 100
▁hhayi 100
▁tii 100
▁utloa 100
14 100
▁groep 100
▁krijgen 100
▁fetisisa 100
▁ngakumbi 100
11 100
▁September 100
", 100
▁tuli 100
▁bandi 100
nika 100
▁date 100
▁90 100
▁Yuda 100
▁werken 100
▁praat 100
▁parents 100
tion 100
▁kwami 100
▁lapha 100
▁yeye 100
▁kutemwa 100
shu 100
leng 100
▁uwezo 100
▁kuja 100
▁amazwe 100
▁conse 100
▁Abakirisu 100
▁dukwiye 100
▁22: 100
▁wayo 100
▁vyiza 100
▁case 100
▁Likamb 100
▁linako 100
▁amafya 100
▁phantsi 100
▁mina 100
▁kwayo 100
▁liwa 100
▁raak 100
▁ukutila 100
▁Maroela 100
net 100
▁22. 100
▁kukuba 100
▁serait 100
lang 100
nes 100
▁huko 100
▁ngabantu 100
▁soek 100
▁lethu 100
▁umuryango 100
▁alembele 100
▁Abrahama 100
▁nakuba 100
▁respect 100
▁China 100
buka 100
▁toli 100
▁dagen 100
naka 100
▁making 100
▁until 100
▁thuto 100
▁certain 100
▁kort 100
▁12, 100
▁kangaka 100
▁alternatief 100
▁ngaphambili 100
▁wokuthi 100
▁yanditse 100
lé 100
▁Salomo 100
▁bohlale 100
▁celui 100
▁7, 100
▁ziwe 100
siza 100
kani 100
chu 100
▁ntembe 100
▁someone 100
uk 100
▁der 100
▁order 100
Mathewu 100
ker 100
▁kangakanani 100
faka 100
▁tayari 100
▁Timote 100
nyana 100
▁bwabo 100
▁tura 100
kunda 100
▁chance 100
18 100
▁2010 100
▁past 100
zoba 100
▁ukutemwa 100
▁mkoani 100
ica 100
sel 100
▁msingi 100
▁uri 100
▁probleem 100
▁natuurlijk 100
▁Waar 100
▁Nkosi 100
soma 100
▁eside 100
▁doesn 100
▁Yohani 100
▁kabi 100
▁uthe 100
▁bosembo 100
▁bumi 100
▁report 100
▁tarehe 100
dlala 100
▁kuva 100
▁today 100
▁ongeveer 100
air 100
▁sengathi 100
▁nemen 100
▁Bara 100
▁Shi 100
▁pendant 100
▁esasi 100
▁uzi 100
▁inani 100
▁conditions 100
▁awaye 100
▁trouver 100
▁waza 100
▁ebongi 100
ano 100
▁Uwo 100
lelo 100
▁bad 100
khulu 100
▁zinazo 100
▁Eliya 100
▁Kuu 100
▁jinsi 100
▁kwii 100
▁nawo 100
17 100
▁Pe 100
▁libala 100
▁permet 100
▁With 100
▁zilizo 100
▁nina 100
ted 100
janye 100
out 100
▁verhaal 100
▁akizungumza 100
▁aller 100
chaza 100
▁mind 100
▁abavyeyi 100
In 100
maKristu 100
▁lors 100
▁system 100
▁ukubomba 100
nza 100
▁ukusebenzisa 100
▁mibeko 100
▁ryiwe 100
▁Kom 100
▁City 100
▁agira 100
▁won 100
▁Aan 100
▁story 100
mbhalo 100
▁taal 100
▁Kwe 100
▁produits 100
▁kotya 100
▁eers 100
▁ase 100
▁hanyuma 100
xi 100
▁quelque 100
▁11, 100
▁okukhulu 100
Israyeli 100
idini 100
▁wabhala 100
▁hlalosa 100
loo 100
▁HAPA 100
▁mabap 100
▁wiki 100
NA 100
umwe 100
▁elobeli 100
▁vyoba 100
nte 100
▁Christus 100
▁souvent 100
▁kwenu 100
▁Merci 100
▁enkele 100
▁stop 100
tre 100
▁saak 100
tanga 100
▁baza 100
▁mtoto 100
▁Afrikaans 100
▁bestaan 100
one 100
▁nouvelle 100
▁Yeka 100
▁kwenza 100
▁https 100
qui 100
▁300 100
▁pre 100
▁uDavide 100
▁isiXhosa 100
▁ingabe 100
▁okubi 100
▁MU 100
▁sodat 100
▁bacu 100
nzi 100
▁Yoane 100
▁gikirisu 100
▁kinjana 100
▁makita 100
aka 100
▁nazali 100
▁afwile 100
▁donner 100
▁share 100
baluleke 100
▁tant 100
▁petite 100
▁photos 100
▁woon 100
yu 100
ef 100
▁choses 100
▁uitge 100
▁vrai 100
▁10, 100
WE 100
▁zullen 100
▁lithi 100
▁allemaal 100
▁against 100
▁bizaleli 100
▁children 100
▁babona 100
kosa 100
ingen 100
▁jaren 100
▁uka 100
▁lokuba 100
▁gutahura 100
▁kure 100
▁OYO 100
▁ami 100
▁dushobora 100
▁abanga 100
▁wakiwa 100
ding 100
▁Amsterdam 100
▁musumba 100
▁state 100
▁uruhara 100
16 100
▁kubaho 100
▁welke 100
▁once 100
▁aebele 100
▁kwani 100
▁kuzi 100
kanye 100
▁Thank 100
▁ekozala 100
▁rwose 100
leli 100
khuluma 100
▁gihugu 100
▁skryf 100
▁Bayuda 100
▁design 100
▁lali 100
mekuwa 100
▁inligting 100
▁anti 100
▁mafuta 100
▁seker 100
▁Di 100
▁Morena 100
▁umwanya 100
▁sport 100
▁Mashariki 100
anza 100
▁km 100
▁surtout 100
themba 100
vol 100
▁went 100
hlanganisa 100
▁années 100
▁Wanneer 100
use 100
▁ashobora 100
▁Su 100
▁tour 100
▁boetse 100
▁play 100
▁BO 100
▁siqu 100
▁Polisi 100
▁ziye 100
▁Vi 100
res 100
▁Wie 100
▁amaze 100
▁gedoen 100
▁inhliziyo 100
▁apa 100
▁Door 100
kele 100
gize 100
▁Alisema 100
▁ezulwini 100
▁zibe 100
▁El 100
▁ngaye 100
▁akomaki 100
▁photo 100
▁mimi 100
▁vandag 100
▁kungase 100
24 100
▁Thanks 100
▁38 100
▁party 100
▁libela 100
▁yu 100
fisa 100
phawula 100
time 100
▁ekuqaleni 100
▁buiten 100
▁fun 100
▁times 100
▁matumizi 100
▁Kama 100
▁left 100
▁bugufi 100
mpa 100
▁email 100
nder 100
▁mwene 100
▁US 100
▁lebitso 100
eer 100
▁DE 100
▁duniani 100
nse 100
ngakhathaliseki 100
▁seko 100
▁please 100
▁lina 100
▁soms 100
www 100
▁maintenant 100
▁terwyl 100
▁Uya 100
Ko 100
art 100
vers 100
▁American 100
▁karibu 100
nwa 100
▁says 100
▁storie 100
▁okuthile 100
▁nathi 100
▁bayi 100
ibindi 100
▁buri 100
▁large 100
▁bihe 100
suku 100
▁entsha 100
▁Kikwete 100
rk 100
▁selfs 100
▁feleng 100
sema 100
▁idea 100
▁izindlela 100
▁Or 100
▁head 100
▁boitšoaro 100
▁call 100
▁mise 100
▁Isaya 100
▁Des 100
▁UYehova 100
▁kuso 100
▁assez 100
▁vra 100
havuye 100
▁Lentsoe 100
khala 100
▁Wonke 100
▁leka 100
ina 100
▁nombre 100
▁lyk 100
▁lijo 100
▁laatste 100
shaka 100
khetha 100
▁ex 100
phila 100
▁inge 100
ul 100
▁16, 100
▁following 100
▁alefwaya 100
▁points 100
▁Ontmoet 100
▁vertel 100
nen 100
ukuntu 100
sch 100
▁bolella 100
▁acitile 100
▁bituma 100
▁bati 100
▁bisika 100
▁dunia 100
vele 100
berg 100
▁rwo 100
▁doel 100
▁asilimia 100
▁Nchi 100
linga 100
▁dalk 100
▁rol 100
▁Abisirayeli 100
▁lazima 100
▁wesu 100
wama 100
▁shi 100
▁inyigisho 100
▁process 100
▁helemaal 100
▁”? 100
biza 100
▁yama 100
hang 100
▁Yamara 100
tera 100
▁2008 100
▁tule 100
aga 100
▁suala 100
giye 100
kom 100
▁libe 100
▁maladi 100
▁Icebo 100
▁ncende 100
▁houden 100
vame 100
▁vita 100
▁four 100
▁boboto 100
▁ukufa 100
▁haufi 100
▁Trump 100
ale 100
25 100
▁iedereen 100
▁namna 100
▁Bw 100
▁ukulanda 100
Re 100
▁vizuri 100
Se 100
ane 100
▁koop 100
▁sommes 100
bhekana 100
▁druk 100
▁company 100
▁bashobora 100
▁mangomba 100
▁milioni 100
▁abigishwa 100
ier 100
▁Your 100
▁calengele 100
▁latela 100
▁stem 100
hora 100
▁namhlanje 100
▁ago 100
▁effet 100
▁Enye 100
▁sebeletsa 100
▁kang 100
▁yet 100
▁gitabu 100
▁besluit 100
tya 100
kuwa 100
vuka 100
▁imibele 100
cabanga 100
▁celle 100
sse 100
▁zoek 100
▁Gi 100
▁apha 100
oor 100
▁Heb 100
▁Korinte 100
▁mail 100
ex 100
▁maison 100
▁ezaleli 100
▁(1 100
▁skool 100
NG 100
▁inter 100
▁Mataifa 100
Die 100
▁Uthi 100
bwiye 100
▁ukumona 100
ary 100
▁Dodoma 100
▁zeBhayibheli 100
▁izithombe 100
▁Kutheni 100
tshela 100
▁Alle 100
ria 100
retse 100
▁Paris 100
banga 100
▁eerder 100
▁mengi 100
▁check 100
▁polisi 100
▁hizi 100
▁gens 100
▁Ubwami 100
▁second 100
▁lank 100
wikipedia 100
▁kwawo 100
▁(2) 100
▁mayelana 100
▁oona 100
▁vast 100
▁thina 100
ngazi 100
▁Unga 100
▁famille 100
▁mokhoa 100
▁Yeruzalemu 100
▁Elilingi 100
▁boemo 100
▁ngale 100
▁file 100
▁kokóma 100
▁Nimba 100
▁façon 100
▁rasmi 100
▁Ngoba 100
zala 100
▁jina 100
tla 100
▁ulu 100
vyo 100
▁nyumba 100
maze 100
▁means 100
Mi 100
▁bwangu 100
▁Jamii 100
▁mkoa 100
▁kobatela 100
▁NI 100
▁lena 100
▁ukubomfya 100
▁hafi 100
▁problem 100
▁wonder 100
▁Baie 100
▁izindawo 100
▁short 100
▁lwabo 100
▁ivyiyumviro 100
▁utu 100
umutima 100
á 100
mwi 100
▁health 100
▁months 100
▁trying 100
mail 100
▁ngola 100
ika 100
▁okuhle 100
tra 100
▁ishina 100
vuma 100
▁others 100
▁Fa 100
▁UM 100
enda 100
sebenzisa 100
ong 100
▁pelo 100
▁ebandeli 100
▁esita 100
▁kuYehova 100
min 100
ese 100
▁pay 100
ntu 100
▁denk 100
▁Uko 100
lingana 100
▁akazange 100
nywa 100
senza 100
Oxford 100
umubiri 100
▁kofanda 100
▁hakuna 100
▁Not 100
aime 100
▁Muli 100
▁gusenga 100
▁vis 100
▁prix 100
▁Out 100
LE 100
ngathi 100
▁zelfs 100
▁gebruikt 100
▁skommel 100
▁eminingi 100
▁Toe 100
▁Raba 100
▁2, 100
▁cakwe 100
▁mazwi 100
▁ekateli 100
▁Bybel 100
tila 100
ais 100
▁fais 100
▁Ci 100
genda 100
▁hariho 100
shima 100
pita 100
▁yawo 100
▁sujet 100
▁tata 100
eux 100
▁Che 100
▁night 100
hari 100
kora 100
Wikipedia 100
▁ingxenye 100
▁bed 100
▁November 100
YA 100
ice 100
▁kimi 100
▁certains 100
ici 100
bumba 100
▁baze 100
▁ntoni 100
▁ngonyaka 100
KA 100
▁war 100
▁sezulu 100
line 100
▁trois 100
RI 100
▁caba 100
▁understand 100
▁13, 100
▁Ata 100
▁kawaida 100
▁future 100
▁Ar 100
less 100
khipha 100
ubuzima 100
▁amakhulu 100
ule 100
▁benu 100
swe 100
▁amahoro 100
▁lit 100
▁ebandleni 100
▁Mateo 100
toe 100
phela 100
▁doet 100
uma 100
▁likebi 100
ino 100
▁list 100
▁uPawulos 100
lalela 100
▁ndandi 100
▁langs 100
▁perfect 100
▁muno 100
▁crois 100
dé 100
▁pretty 100
▁intumwa 100
▁nile 100
▁Maendeleo 100
Pa 100
▁ruta 100
ictionaries 100
kisa 100
▁eohle 100
▁yaliyo 100
kken 100
▁obe 100
▁angi 100
▁wala 100
nti 100
▁lokuthi 100
▁Nini 100
▁lewer 100
▁warm 100
urs 100
▁kampuni 100
▁gebruiken 100
▁geeft 100
▁Baraza 100
▁etse 100
▁computer 100
chitha 100
▁Yerusalemu 100
▁hlokahala 100
▁pourquoi 100
▁market 100
▁ulio 100
▁twali 100
baye 100
▁country 100
mon 100
▁zayo 100
▁Mbala 100
▁yabantu 100
▁ilikuwa 100
▁kleine 100
▁kukaNkulunkulu 100
▁ubuntu 100
▁Don 100
▁amohela 100
ance 100
▁wilaya 100
▁yale 100
▁igazi 100
ang 100
shiya 100
▁Twitter 100
▁2009 100
▁bietjie 100
▁Meer 100
▁ngezinto 100
▁raison 100
▁aarde 100
▁donne 100
▁Aburahamu 100
▁Ngangi 100
yini 100
▁become 100
▁Oh 100
nze 100
▁continue 100
▁lingomba 100
-- 100
▁Per 100
▁dernier 100
▁ibiki 100
▁ngawo 100
▁elali 100
maphesenti 100
▁ro 100
▁sengqondo 100
▁grootste 100
▁ruimte 100
▁Kati 100
imi 100
même 100
▁eaba 100
▁bonahala 100
mm 100
▁aujourd 100
▁bikaba 100
▁lwethu 100
▁kabiri 100
▁ndiyo 100
▁Kan 100
▁muryango 100
sekela 100
YE 100
▁hape 100
▁passe 100
▁partir 100
lig 100
▁idee 100
aire 100
▁zika 100
qe 100
lá 100
tile 100
▁verstaan 100
▁moholo 100
▁exemple 100
▁gufasha 100
▁amabili 100
gizwe 100
gcwele 100
ngenza 100
bile 100
▁kusema 100
▁lwakho 100
fanya 100
bheka 100
▁lokumu 100
▁quite 100
ate 100
▁wanawake 100
▁program 100
tsho 100
▁Lokho 100
▁nalo 100
ful 100
▁tuin 100
▁usi 100
▁myself 100
mara 100
van 100
bwa 100
▁afwaya 100
▁Bongo 100
adhi 100
bhala 100
▁tsamaea 100
▁Hom 100
▁naku 100
laka 100
panga 100
▁bata 100
▁thata 100
▁uhlobo 100
▁motuya 100
▁emi 100
mwe 100
▁shughuli 100
▁gevolg 100
Fakazi 100
▁dieselfde 100
▁vue 100
▁misi 100
▁Ngisho 100
▁seul 100
▁akho 100
soloko 100
▁buku 100
▁groupe 100
▁malunga 100
▁nuus 100
▁ndawonye 100
▁pale 100
▁Let 100
▁ithemba 100
▁bakonzi 100
geze 100
▁Joale 100
bho 100
▁injabulo 100
▁nange 100
▁kleur 100
zithombe 100
▁koya 100
▁isizathu 100
▁semble 100
▁Mei 100
▁ngokomoya 100
zalwa 100
KO 100
▁ibindi 100
▁ira 100
▁kina 100
▁bank 100
▁kudingeka 100
xe 100
fumana 100
▁anaye 100
▁Hii 100
▁loop 100
To 100
▁Leo 100
▁friends 100
reka 100
▁makes 100
▁voorval 100
▁lyashi 100
▁blijven 100
ndu 100
▁wit 100
thola 100
mpe 100
ibintu 100
▁tuba 100
▁HERE 100
▁often 100
▁mwali 100
bhe 100
▁maemo 100
▁David 100
▁eminyakeni 100
▁umntwana 100
▁whole 100
pas 100
▁efanayo 100
▁klaar 100
▁vele 100
▁tsoang 100
▁esihle 100
▁khotso 100
▁yariko 100
▁seen 100
bili 100
kira 100
▁rais 100
▁kuronka 100
voor 100
▁geloof 100
▁Comment 100
▁kant 100
▁yanayo 100
▁James 100
▁KATIKA 100
▁mathata 100
LA 100
njalo 100
▁Indien 100
tri 100
▁ontvang 100
▁position 100
▁RAIS 100
▁Nzembo 100
▁Yesaya 100
▁uliopita 100
▁else 100
fundisa 100
▁ivyerekeye 100
sabela 100
tendeka 100
muntu 100
▁indien 100
ayo 100
▁incito 100
yise 100
▁saa 100
▁xesha 100
▁ryari 100
▁charge 100
▁ambalo 100
LI 100
▁message 100
▁sites 100
TI 100
imyaka 100
▁glad 100
▁room 100
▁motor 100
phinde 100
▁Pas 100
▁kokokisa 100
▁umupashi 100
ens 100
▁personal 100
▁mji 100
▁bwose 100
▁Canada 100
▁KA 100
▁ngosuku 100
▁imbi 100
▁info 100
▁nyamukuru 100
aient 100
▁Lwakhe 100
▁ngamunye 100
▁kuma 100
▁Johanne 100
▁Ro 100
▁siyo 100
▁group 100
njani 100
▁ntibi 100
▁libaku 100
▁mbuma 100
▁elingi 100
▁UYesu 100
hlale 100
▁attention 100
▁ibandla 100
▁ukusebenza 100
▁Nsima 100
▁seku 100
Je 100
▁zawo 100
gire 100
▁Mama 100
▁ikutloa 100
▁kotsi 100
▁vooral 100
▁sanza 100
▁lugha 100
▁Sha 100
▁impwemu 100
▁together 100
▁binne 100
▁ubo 100
▁Ils 100
▁vriende 100
▁umunezero 100
▁area 100
▁sase 100
▁Isi 100
nina 100
khuthaza 100
▁bwacu 100
▁prijs 100
▁mekaar 100
▁Halmashauri 100
▁ujenzi 100
▁gebeur 100
▁Leta 100
mw 100
▁minene 100
▁waarom 100
▁vas 100
▁iba 100
hlu 100
▁told 100
▁ubumi 100
▁biba 100
zange 100
▁sommer 100
sten 100
zima 100
▁gisagara 100
ag 100
▁qeto 100
▁couple 100
▁Mokonzi 100
▁middel 100
▁Amazwi 100
qalisa 100
▁impanuro 100
▁kamuva 100
bel 100
▁thabo 100
lie 100
▁icala 100
▁National 100
king 100
▁imibuzo 100
▁IBhayibhile 100
▁kuno 100
▁afge 100
thandaza 100
shintsha 100
▁sort 100
▁ville 100
▁woorde 100
▁mkono 100
tsoa 100
▁hotel 100
limi 100
iti 100
▁light 100
▁HABARI 100
▁likaThixo 100
bhu 100
▁matter 100
▁wet 100
▁within 100
▁soort 100
▁Kwaku 100
▁choix 100
▁esikhathini 100
▁Spika 100
▁seems 100
▁ab 100
▁Zonke 100
▁Alors 100
▁problème 100
▁Well 100
▁siye 100
▁babili 100
▁monɔkɔ 100
tsha 100
▁iri 100
▁bilenge 100
▁ebile 100
yoba 100
▁yam 100
▁umzimba 100
▁sebaka 100
▁Now 100
▁along 100
▁sterk 100
▁learn 100
▁hulp 100
▁nothing 100
▁tête 100
▁Baada 100
▁body 100
▁gevoel 100
▁Noa 100
▁mengine 100
buya 100
ley 100
▁liya 100
lijk 100
▁opge 100
▁Ala 100
uru 100
▁vyombo 100
▁gebied 100
▁Ngokomzekelo 100
▁mazingira 100
▁dae 100
▁ilingi 100
▁Home 100
▁:) 100
▁probably 100
▁zeggen 100
kuphela 100
agit 100
▁nendlela 100
▁daarom 100
▁Nkolo 100
▁izwi 100
qonda 100
Wa 100
zAga 100
▁everything 100
wiki 100
Lo 100
▁nature 100
▁LE 100
▁Want 100
▁twaba 100
▁Kusini 100
▁link 100
▁Car 100
▁euro 100
▁fo 100
▁matokeo 100
▁kunokuba 100
▁kuhakikisha 100
▁started 100
▁maso 100
▁tšepo 100
▁uno 100
▁Wi 100
ssen 100
▁University 100
▁fe 100
▁kuThixo 100
▁ezimbalwa 100
▁Australia 100
▁citetekelo 100
▁sesi 100
fanele 100
▁kile 100
▁San 100
▁Europe 100
▁hoog 100
▁iza 100
Ta 100
▁women 100
▁tozalaki 100
▁zikaNkulunkulu 100
▁yona 100
▁gukorera 100
setshenziswa 100
▁enze 100
▁mwingine 100
▁tangu 100
▁isibonelo 100
▁Matai 100
▁Tse 100
ab 100
▁house 100
▁ukuqonda 100
▁tatizo 100
▁kateng 100
egle 100
▁plaisir 100
▁ezin 100
zinto 100
▁Mambo 100
kumelwe 100
!” 100
▁amanye 100
▁(19 100
▁International 100
▁reis 100
▁labantu 100
▁42 100
▁bijvoorbeeld 100
▁25. 100
Aba 100
▁los 100
▁selon 100
tari 100
▁uSathane 100
▁Akukho 100
▁Petrose 100
Ek 100
buze 100
▁kuliko 100
▁zase 100
▁veux 100
▁okwiphepha 100
ngwe 100
▁endlini 100
▁Kamati 100
▁dingen 100
▁Ntate 100
▁gukoresha 100
▁umri 100
▁imithetho 100
▁almost 100
▁Mbunge 100
▁hangata 100
▁amafunde 100
▁available 100
▁Sena 100
▁hase 100
▁amani 100
▁phakade 100
wel 100
kuma 100
▁kwake 100
▁anyone 100
▁including 100
RA 100
nomuzwa 100
▁ukulingana 100
▁Wil 100
▁19, 100
zenza 100
Be 100
▁ethu 100
LO 100
▁Kuna 100
▁Data 100
▁zitten 100
▁child 100
▁ngezinye 100
▁Nederlandse 100
▁Isikhathi 100
wenza 100
▁itila 100
ó 100
▁Mijn 100
▁Log 100
kura 100
▁mabɔkɔ 100
▁esinga 100
40 100
nsi 100
▁vanuit 100
▁million 100
▁système 100
▁muziek 100
▁walikuwa 100
tali 100
▁bufi 100
▁batila 100
▁stap 100
▁ubukerebutsi 100
bwirizwa 100
▁kuanza 100
▁début 100
▁omgeving 100
dig 100
▁kolobela 100
▁ntiya 100
▁stand 100
ges 100
▁MATOKEO 100
ff 100
▁usu 100
▁kokufa 100
▁kuntu 100
▁beetje 100
▁mosika 100
mazi 100
▁bou 100
▁ngabo 100
▁gutanga 100
▁agaciro 100
▁Mr 100
▁48 100
▁waandishi 100
▁canecane 100
veza 100
▁ifisuma 100
▁fond 100
▁Uqobo 100
▁mfwa 100
▁kop 100
ik 100
▁food 100
▁krijgt 100
jarige 100
▁kwakwe 100
▁Can 100
▁amonisaki 100
▁taking 100
▁devant 100
▁phezulu 100
▁Afya 100
▁sukulu 100
oa 100
▁Fe 100
▁atako 100
▁kijken 100
▁semaine 100
▁bophelong 100
▁took 100
▁genre 100
▁liloba 100
▁ngexesha 100
ving 100
nywe 100
▁Tout 100
▁ukupepa 100
bongoli 100
khi 100
▁kuendelea 100
ngisa 100
▁visit 100
uw 100
▁kotosa 100
▁Mapinduzi 100
▁nankwe 100
tholakala 100
▁sechaba 100
▁edlule 100
▁mbi 100
▁nice 100
▁zodat 100
▁kaJesu 100
sengelaki 100
▁nimba 100
vuye 100
▁needs 100
▁impilo 100
▁mehleng 100
▁wangu 100
▁êtes 100
▁Bwin 100
▁font 100
ert 100
▁fihla 100
ngana 100
▁America 100
▁ngoana 100
ties 100
▁namba 100
amini 100
mini 100
▁Matukio 100
▁umulandu 100
▁fihlela 100
▁wenze 100
▁abangu 100
over 100
abana 100
▁bobe 100
▁gemeente 100
▁ngabe 100
▁sécurité 100
▁mini 100
▁lekholong 100
bani 100
▁nangoku 100
▁ububasha 100
▁kosalema 100
▁uthole 100
▁hours 100
▁motheo 100
▁vindt 100
ps 100
nayo 100
▁run 100
kholwa 100
▁akómaki 100
bhekisela 100
▁kosɛnga 100
▁kwesikhathi 100
bhi 100
lt 100
▁kwaliteit 100
isme 100
▁March 100
▁reng 100
▁nesi 100
▁Efese 100
lya 100
▁sebakeng 100
▁hlobo 100
▁44 100
ron 100
rya 100
▁ligt 100
▁sio 100
▁inkonzo 100
He 100
ncwadi 100
▁100% 100
▁fetileng 100
▁October 100
▁Bon 100
▁izincwadi 100
▁masuala 100
ere 100
ning 100
▁eet 100
▁journée 100
eng 100
kana 100
▁femme 100
▁sele 100
▁fetang 100
jua 100
▁Ti 100
tala 100
▁ila 100
▁wilt 100
▁ijambo 100
▁mfumo 100
▁lokuta 100
hambo 100
▁Her 100
fwaya 100
zele 100
▁familia 100
▁Umfanekiso 100
▁17, 100
▁TE 100
SI 100
guma 100
▁kupepa 100
▁everyone 100
▁Cela 100
▁thabela 100
fata 100
bereye 100
▁vriend 100
sana 100
▁kundi 100
▁ngenderwako 100
▁icitetekelo 100
▁Joaloka 100
kufa 100
▁Adama 100
▁ngokupheleleyo 100
▁sta 100
▁izimo 100
▁pré 100
▁geneem 100
▁Moneni 100
▁kokoka 100
▁shina 100
mbula 100
▁Makamu 100
▁umugabo 100
▁Bonke 100
▁kaha 100
▁kolendisa 100
nyaka 100
▁ndimi 100
▁easy 100
▁offer 100
▁bita 100
▁Oui 100
▁pris 100
▁ken 100
▁students 100
▁mokumba 100
▁yokuphila 100
▁mafya 100
▁Comme 100
▁ngathi 100
mye 100
▁olukhulu 100
▁amonaki 100
▁lentsoe 100
▁recherche 100
▁qualité 100
▁doute 100
▁Après 100
▁azwaki 100
▁asked 100
▁radio 100
▁ikakhulukazi 100
elles 100
▁gedaan 100
▁lake 100
sia 100
tsoe 100
ries 100
▁zenu 100
▁regte 100
laba 100
▁bonolo 100
fise 100
ème 100
▁ligne 100
tic 100
zindlu 100
▁mfano 100
▁bacha 100
▁feletseng 100
ks 100
▁Kaha 100
▁hloko 100
▁wou 100
mbono 100
▁Baba 100
elo 100
▁selemo 100
▁lig 100
ans 100
▁taken 100
kata 100
▁ntlo 100
▁kelasi 100
▁manière 100
▁07 100
▁These 100
▁vrij 100
▁icalo 100
▁bihambaye 100
▁ziara 100
▁amalungu 100
▁mean 100
▁ukufwaya 100
noma 100
▁kwindawo 100
.+ 100
tten 100
▁government 100
ii 100
▁yoko 100
▁ubona 100
▁Noord 100
mera 100
▁batile 100
▁Chuo 100
dingeka 100
▁Filipi 100
▁Babiloni 100
▁cabo 100
raba 100
▁kaofela 100
▁mitema 100
▁400 100
▁livre 100
▁unao 100
qaphela 100
▁kans 100
▁geniet 100
▁recht 100
▁injongo 100
jwe 100
▁High 100
▁29. 100
▁Laat 100
▁soon 100
▁UN 100
nka 100
▁moho 100
ZA 100
ngaphandle 100
21 100
▁Picha 100
▁sethu 100
▁wapi 100
kulu 100
▁given 100
▁Pia 100
▁nke 100
▁ask 100
▁helpen 100
▁membres 100
bwe 100
ser 100
▁ndege 100
▁loin 100
takuwa 100
▁kulenga 100
▁année 100
▁porte 100
▁gegevens 100
▁provide 100
tumia 100
▁noNkulunkulu 100
▁lezen 100
▁nyakuri 100
▁gqitha 100
bula 100
▁Ngaphandle 100
▁kuona 100
nji 100
▁halalelang 100
▁Est 100
▁bake 100
▁energie 100
laki 100
oli 100
os 100
boek 100
▁Volgens 100
▁Asia 100
▁mohla 100
▁Satane 100
▁zegt 100
▁cadre 100
▁kalula 100
▁July 100
▁Aku 100
▁iwe 100
▁oui 100
▁beskikbaar 100
▁baga 100
▁veral 100
mana 100
▁okwaku 100
ated 100
▁150 100
temwa 100
▁santé 100
▁owawu 100
ville 100
▁Nou 100
▁nyumbani 100
▁sommige 100
▁passé 100
▁lengo 100
▁Lesi 100
nie 100
▁umusa 100
tter 100
▁urwo 100
▁benza 100
▁Robert 100
▁boyebi 100
▁ibikorwa 100
▁parler 100
▁kosepela 100
année 100
▁kwazo 100
▁icizigiro 100
shumi 100
▁jeune 100
▁Igama 100
So 100
▁Vyanditswe 100
een 100
▁Wana 100
▁kufwaya 100
▁August 100
▁balingile 100
▁baholo 100
13 100
▁account 100
rait 100
» 100
▁kungaba 100
▁Kiswahili 100
▁However 100
▁eBhayibhelini 100
Afrikaanse 100
▁nzuri 100
▁Wakati 100
ous 100
▁panono 100
▁geleden 100
▁Bala 100
▁thuso 100
▁vyara 100
▁nzu 100
▁indlu 100
▁reason 100
▁Qu 100
hlangana 100
▁kwakhona 100
▁plutôt 100
▁bavuga 100
▁melao 100
▁kwishiba 100
▁merci 100
▁nango 100
▁KO 100
▁eerst 100
▁changamoto 100
ene 100
saka 100
ndlu 100
▁iqembu 100
▁Cor 100
tia 100
▁several 100
▁ooit 100
▁happy 100
▁41 100
▁Bheka 100
▁ukwi 100
▁sent 100
▁writing 100
▁power 100
tseng 100
gura 100
▁kwezinye 100
▁Shirika 100
▁leuke 100
Tu 100
▁2000 100
ombe 100
▁mradi 100
▁called 100
▁eziyi 100
▁verander 100
▁budget 100
▁regering 100
▁tšepahalang 100
▁r 100
▁isifundo 100
PA 100
▁veut 100
▁sociale 100
▁wokushumayela 100
▁Mon 100
Uku 100
▁Bana 100
kali 100
elijk 100
ach 100
▁yandi 100
igi 100
wer 100
▁lawo 100
▁Online 100
nani 100
ula 100
▁yoyote 100
▁nami 100
ber 100
▁Congo 100
▁seBhayibheli 100
▁neze 100
▁molai 100
▁ayengi 100
▁uena 100
▁weekend 100
▁inkosi 100
fya 100
▁close 100
▁Even 100
▁version 100
▁looks 100
qhuba 100
▁seulement 100
mpo 100
▁gesien 100
▁euti 100
shinga 100
ris 100
▁abi 100
ally 100
▁Aho 100
▁mot 100
▁fursa 100
▁elk 100
▁dra 100
gula 100
isha 100
▁Just 100
KU 100
iteit 100
▁zama 100
▁che 100
▁kanshi 100
▁balefwaya 100
Sa 100
▁Ou 100
▁nyinshi 100
qela 100
▁Izi 100
▁ebongiseli 100
▁abale 100
▁». 100
▁su 100
▁Esaya 100
▁form 100
▁aca 100
▁zose 100
▁côté 100
lana 100
▁baku 100
nikezwa 100
▁Over 100
▁haba 100
itwa 100
▁indodana 100
pel 100
▁Omeg 100
▁gegee 100
▁George 100
▁envie 100
ue 100
▁engama 100
▁Kwena 100
▁hati 100
▁Nangona 100
▁kuto 100
▁kweminyaka 100
▁umbono 100
▁23: 100
▁zetu 100
▁laaste 100
▁blijft 100
▁uwali 100
▁toekoms 100
▁oog 100
▁Elimu 100
nja 100
stand 100
▁turn 100
del 100
▁Kor 100
▁twari 100
tal 100
▁karibuni 100
▁tard 100
▁eketsehileng 100
▁20, 100
ume 100
▁karere 100
ngaki 100
▁Mangolo 100
dy 100
▁ciwe 100
▁pourrait 100
buyela 100
▁KI 100
ali 100
moni 100
▁zazo 100
▁di 100
▁igi 100
▁research 100
▁boklisto 100
▁mafunzo 100
▁ngokwenene 100
▁juni 100
luka 100
▁mitima 100
▁fumane 100
▁music 100
▁daarna 100
leke 100
▁mots 100
nini 100
▁shoa 100
▁senze 100
▁Pombe 100
▁43 100
▁ndaba 100
▁geword 100
▁!!! 100
met 100
▁bedrijf 100
▁namandla 100
▁enhle 100
▁kuhlanganise 100
▁enkonzweni 100
▁training 100
▁mwaba 100
wing 100
▁beteken 100
ngeni 100
▁kuongeza 100
▁ubucuti 100
khumbula 100
▁fulani 100
▁album 100
▁licht 100
ite 100
▁notamment 100
bra 100
▁ezingama 100
▁boven 100
▁ubutumwa 100
▁aucun 100
▁hiki 100
▁mamela 100
▁sithi 100
kolo 100
▁propose 100
▁test 100
▁club 100
▁rate 100
▁programme 100
▁39 100
▁makila 100
▁Ana 100
▁mituna 100
▁nkuru 100
▁eux 100
▁UK 100
▁meet 100
vis 100
▁usalama 100
▁Goom 100
▁bagize 100
▁Park 100
▁Kerk 100
▁seule 100
▁eba 100
▁uKristu 100
maka 100
▁wari 100
ft 100
▁shall 100
▁2007 100
▁tsebo 100
▁Japan 100
▁vyama 100
No 100
▁six 100
▁current 100
▁Ubufumu 100
▁kuanzia 100
▁Davida 100
▁toen 100
ranga 100
▁red 100
▁force 100
▁bijna 100
▁IN 100
▁kwabanye 100
keni 100
kaba 100
▁vite 100
rt 100
▁nepahetseng 100
▁eigenlijk 100
taki 100
▁Ngempela 100
▁thuis 100
▁ifyebo 100
▁Simba 100
▁community 100
stel 100
hlola 100
koresheje 100
▁kiganiro 100
▁société 100
meli 100
▁Jeshi 100
▁hana 100
▁Yes 100
lowo 100
nikwa 100
▁Zij 100
▁masumu 100
ap 100
ngani 100
▁asengeli 100
▁lolu 100
▁mei 100
▁koyebisa 100
phethe 100
▁mosa 100
moya 100
▁lisalisi 100
citile 100
tro 100
▁kazoza 100
▁June 100
▁wanted 100
▁mpango 100
▁uki 100
▁basalaki 100
ndlela 100
▁seront 100
▁Net 100
zimisele 100
▁makubwa 100
▁Amapinda 100
▁Abrahamu 100
red 100
▁ukuthula 100
▁soir 100
bishobora 100
▁michezo 100
llo 100
▁mesure 100
yeka 100
▁busuku 100
ailleurs 100
teka 100
▁développement 100
▁Omunye 100
▁47 100
thole 100
It 100
ping 100
▁amagama 100
▁Kwakhona 100
▁kotika 100
▁esalemaki 100
twe 100
tendeke 100
▁Watanzania 100
▁industry 100
kiri 100
▁reading 100
ations 100
▁atu 100
▁Umwami 100
▁batisimo 100
▁tsotellehe 100
▁klabu 100
▁umuti 100
sing 100
▁isintu 100
▁Siku 100
▁magazini 100
▁kobanga 100
▁eleko 100
ering 100
▁amahera 100
▁Korinti 100
▁Solomone 100
▁rather 100
▁clients 100
nyo 100
mise 100
▁2001 100
uli 100
-3 100
ah 100
▁articles 100
namandla 100
Nga 100
▁unaweza 100
▁bitsoang 100
▁lami 100
▁ai 100
▁ndiye 100
▁young 100
▁ukusuka 100
▁Yara 100
▁sikaNkulunkulu 100
▁ezifana 100
▁sabo 100
noku 100
nyama 100
▁banna 100
▁wind 100
▁ding 100
ham 100
▁TOOS 100
”, 100
▁volk 100
▁giti 100
▁Uhuru 100
gra 100
▁tips 100
sy 100
-2 100
▁-- 100
▁banda 100
▁kubi 100
▁lime 100
▁corps 100
▁endi 100
▁ngowe 100
▁handel 100
nnen 100
▁After 100
vuze 100
▁izinkinga 100
my 100
▁yatanze 100
▁stay 100
fula 100
▁eten 100
▁stuur 100
lindele 100
▁stuk 100
nquma 100
▁waarvan 100
▁lid 100
▁endleleni 100
koresha 100
hand 100
ngayi 100
ud 100
leyo 100
▁emehlweni 100
▁ukukana 100
accord 100
▁harimwo 100
ire 100
▁kolinga 100
▁trek 100
▁hadden 100
▁Ahubwo 100
▁umwine 100
▁gufata 100
▁akarelletsa 100
vula 100
▁minute 100
teye 100
▁sawa 100
▁kosten 100
▁Bona 100
▁litho 100
▁toepassing 100
▁geweest 100
▁28. 100
▁Our 100
45 100
kw 100
▁hoofd 100
▁Amalembo 100
▁nezinto 100
▁Tract 100
▁kwalo 100
▁Makomami 100
letha 100
▁werden 100
▁tsebe 100
▁politique 100
▁month 100
▁Watu 100
▁Peter 100
▁letho 100
▁abona 100
eerd 100
▁latelang 100
▁Daniele 100
lf 100
▁mechi 100
par 100
▁kena 100
mphostoli 100
▁national 100
▁ubuhlobo 100
▁police 100
▁ngokukhawuleza 100
▁forward 100
▁batu 100
▁aza 100
▁Mwaka 100
kt 100
nyuka 100
twi 100
90 100
mthetho 100
▁ingane 100
▁hoof 100
cher 100
▁Kandi 100
hola 100
▁umwina 100
▁mwanamke 100
▁lire 100
▁kuni 100
▁example 100
▁ntoma 100
shiriki 100
▁esikoleni 100
▁motindo 100
▁Mag 100
▁mabota 100
pusana 100
▁seun 100
▁issue 100
▁feit 100
▁iyihe 100
▁beeld 100
▁elenge 100
▁asili 100
▁ahantu 100
▁shimo 100
uwa 100
keneye 100
lapho 100
▁kufika 100
▁lief 100
liwa 100
▁niets 100
▁clear 100
dle 100
▁special 100
▁2019 100
▁rapela 100
▁model 100
▁issues 100
asie 100
▁Bwana 100
▁Sh 100
▁yenza 100
▁human 100
▁yourself 100
▁morero 100
▁abasha 100
▁ngalokho 100
▁18, 100
▁ishengero 100
zana 100
▁volg 100
▁bulanda 100
thwa 100
▁fit 100
bhekene 100
▁final 100
▁Babe 100
rwe 100
▁ezinjalo 100
▁46 100
▁konse 100
▁natuur 100
phele 100
ize 100
▁kituo 100
▁bikólo 100
senga 100
▁kobongisa 100
▁mule 100
▁kubalulekile 100
▁25: 100
bangelwa 100
▁William 100
sche 100
▁MKUU 100
▁hejuru 100
▁talk 100
ningi 100
▁marketing 100
▁weeks 100
▁production 100
▁elimboli 100
▁général 100
▁isandla 100
▁cm 100
▁abantunse 100
▁zaba 100
▁upon 100
▁ngamandla 100
▁ndugu 100
▁however 100
▁salaam 100
▁leso 100
▁Uit 100
shiwa 100
▁heart 100
bera 100
▁aura 100
▁bó 100
▁comes 100
YO 100
▁weken 100
▁twinga 100
▁ukurasa 100
▁cino 100
kuqonda 100
▁Jean 100
▁polisie 100
menya 100
jaar 100
▁maoni 100
▁inshila 100
▁kwemera 100
unga 100
▁matomba 100
▁umwa 100
▁compris 100
▁table 100
mile 100
▁haut 100
▁ontmoet 100
▁zamani 100
▁ngiya 100
▁fonction 100
▁muso 100
▁winter 100
sies 100
▁onge 100
▁zie 100
▁bumo 100
▁val 100
mine 100
▁solution 100
▁uhlelo 100
lapha 100
pt 100
▁hopola 100
▁Sur 100
▁Ngokuba 100
▁Tim 100
▁onderzoek 100
loba 100
▁zaterdag 100
▁either 100
ism 100
▁Iseraele 100
▁Primary 100
▁komhlaba 100
dès 100
side 100
▁kimataifa 100
bulala 100
▁train 100
▁Sera 100
▁bubi 100
▁heures 100
▁bus 100
▁true 100
▁ivya 100
▁kids 100
▁msebenzi 100
▁likanisi 100
▁less 100
▁elles 100
ard 100
▁tuta 100
isation 100
kola 100
▁volledig 100
▁level 100
▁mrefu 100
zen 100
▁producten 100
moneka 100
▁ikhaya 100
▁Ces 100
ani 100
▁makoki 100
▁isuma 100
▁werkt 100
▁peli 100
yisa 100
ls 100
▁kubonakala 100
for 100
▁coming 100
▁Timoteyo 100
▁bucibusa 100
▁Charles 100
▁umutwe 100
kozi 100
▁mikili 100
ian 100
▁tog 100
sanda 100
▁Plus 100
▁bande 100
▁hlaha 100
▁alipo 100
▁alingaki 100
▁abayi 100
▁engangi 100
▁maneno 100
nel 100
▁besig 100
▁Ifya 100
▁jeu 100
▁tulingil 100
▁elo 100
▁study 100
▁luka 100
▁emuva 100
▁art 100
▁dini 100
▁Joseph 100
loos 100
phinda 100
▁early 100
seli 100
▁vyifashe 100
▁niemand 100
old 100
▁puo 100
▁kude 100
▁ishi 100
▁boela 100
▁ishingi 100
▁elinye 100
shumayela 100
sibikezelo 100
▁sikoyo 100
▁likoki 100
▁cool 100
holela 100
dit 100
▁gekom 100
▁2006 100
RE 100
tye 100
▁etsoa 100
▁huwa 100
▁HO 100
▁iindaba 100
▁Bar 100
▁January 100
gereranya 100
▁umbi 100
▁dernière 100
▁lê 100
▁Kimataifa 100
▁duidelijk 100
▁kopanela 100
▁sezinsuku 100
▁Nya 100
▁Bamo 100
▁ukuyi 100
▁create 100
▁près 100
▁31. 100
BA 100
▁ukuhamba 100
▁ibibazo 100
▁Super 100
▁esikhundleni 100
▁sub 100
▁kiwango 100
▁lisumu 100
▁cipande 100
▁LEO 100
▁regard 100
sazi 100
ante 100
▁mtandao 100
ille 100
▁esithile 100
▁imitima 100
▁55 100
▁Imi 100
United 100
▁weinig 100
▁route 100
lin 100
▁VYA 100
▁Saint 100
sali 100
▁ezindaweni 100
▁aali 100
zisa 100
▁voordat 100
kwete 100
▁ubufakazi 100
▁belle 100
▁State 100
▁balya 100
ngazange 100
▁Taarifa 100
▁Niet 100
▁vroue 100
▁eyodwa 100
sisa 100
▁kamer 100
▁moyo 100
▁taasisi 100
▁moninga 100
▁Verander 100
▁yeux 100
nci 100
jana 100
▁air 100
▁IHubo 100
▁King 100
▁gehoor 100
▁denken 100
nkathi 100
▁tukio 100
▁duidelik 100
▁nuit 100
hile 100
▁naby 100
yebisaki 100
▁above 100
▁kamehla 100
▁Ngokwe 100
▁Arusha 100
▁tel 100
cite 100
▁overleden 100
▁Kufanele 100
▁eyes 100
▁ukuleka 100
▁abu 100
▁Lezi 100
▁msaada 100
▁keletso 100
▁vrouw 100
▁sekta 100
garagaza 100
▁Njengo 100
▁binafsi 100
▁Jou 100
ture 100
▁ekugcineni 100
▁kangangokuba 100
▁lijkt 100
▁dorp 100
▁millions 100
▁Ili 100
▁basalaka 100
▁phutheho 100
▁ule 100
▁ndoa 100
▁bilei 100
▁wose 100
▁umma 100
▁Lisusu 100
▁sizi 100
26 100
kɔ 100
▁imani 100
▁Korea 100
▁ngemuva 100
▁formation 100
▁front 100
▁!! 100
TA 100
▁solosolo 100
▁ofisi 100
xo 100
eg 100
ran 100
▁bimwebimwe 100
mibhalo 100
▁Da 100
▁mitano 100
▁Word 100
mina 100
▁okuningi 100
▁wokuqala 100
▁ubushiku 100
avait 100
▁client 100
▁Uwa 100
▁news 100
zazi 100
▁Pesaleme 100
▁muyayaya 100
▁plein 100
▁kunoku 100
day 100
eurs 100
lengele 100
▁Some 100
pwa 100
▁retour 100
▁alu 100
▁minuten 100
▁mobile 100
▁mohlomong 100
▁Balozi 100
▁ANC 100
▁win 100
nne 100
▁kwose 100
▁yomuntu 100
▁December 100
▁Hobane 100
thumela 100
▁maelezo 100
▁enjalo 100
▁gros 100
▁whether 100
▁ifyabipa 100
▁zee 100
▁kepha 100
▁cost 100
▁twese 100
▁65 100
minyaka 100
uti 100
▁Cine 100
▁hands 100
▁Mibeko 100
▁bone 100
▁uongozi 100
ders 100
korera 100
▁UThixo 100
▁njengokuba 100
▁benze 100
kant 100
koze 100
▁tume 100
layo 100
kurikira 100
▁West 100
sizi 100
lamu 100
ruta 100
▁ziet 100
khaya 100
▁izizwe 100
▁leave 100
▁TANZANIA 100
qinisekisa 100
riko 100
lolo 100
▁bisobanura 100
▁abavukanyi 100
hlanganyela 100
ari 100
▁links 100
▁kuta 100
▁price 100
▁toka 100
▁waarde 100
▁ongcwele 100
▁milimo 100
maNgqina 100
▁Sara 100
▁jare 100
▁produit 100
espère 100
fer 100
qale 100
▁kuleli 100
▁Dus 100
xoxa 100
▁bwiza 100
▁fetoha 100
mé 100
▁zoon 100
▁esinye 100
hleli 100
▁52 100
kende 100
▁agatima 100
▁across 100
▁punt 100
lunye 100
lwazi 100
▁ngesi 100
▁yalokho 100
▁Daarom 100
▁wys 100
▁slegs 100
▁siasa 100
▁town 100
▁friend 100
▁kivuga 100
▁Mika 100
▁Labo 100
▁amehlo 100
▁mpela 100
mes 100
▁Yanga 100
▁cipya 100
▁forme 100
kisi 100
▁wag 100
▁seem 100
▁complete 100
▁isho 100
▁tuzo 100
▁Oyo 100
llen 100
moto 100
▁Aidha 100
▁present 100
▁Samwele 100
▁muka 100
kili 100
], 100
You 100
▁amaNgqina 100
▁30. 100
taba 100
▁band 100
▁jewe 100
▁kokuthi 100
▁mbaya 100
▁indaba 100
▁gushira 100
étais 100
epfo 100
▁humo 100
▁aurait 100
▁ababomfi 100
▁Ng 100
▁umama 100
▁Incwadi 100
▁Chi 100
▁ekeke 100
▁zime 100
bonise 100
▁avis 100
▁mubili 100
pwisha 100
gazi 100
mpu 100
▁49 100
FU 100
▁mabadiliko 100
▁vroeg 100
hanga 100
▁totaal 100
sambilila 100
▁groter 100
▁muhira 100
phumelela 100
pers 100
▁herstel 100
▁mulefwaya 100
▁mike 100
ngane 100
▁buy 100
▁kōpa 100
▁amalungelo 100
▁données 100
▁utloisisa 100
▁wadau 100
▁Sheria 100
▁idadi 100
rira 100
▁pel 100
▁miljoen 100
▁mele 100
gerageza 100
▁hair 100
toka 100
▁cut 100
mpostile 100
▁Ngokuqinisekile 100
▁eminyaka 100
▁UKU 100
▁milieu 100
▁cimbi 100
▁uwanja 100
▁Oko 100
wini 100
▁umusi 100
▁batendeke 100
han 100
▁Sam 100
▁intando 100
ngaba 100
▁terme 100
fike 100
lilo 100
sunga 100
▁lokelang 100
mandla 100
▁hakaakang 100
linda 100
▁iteka 100
▁ezintsha 100
▁style 100
▁tlas 100
▁deal 100
▁2004 100
yazi 100
name 100
▁low 100
vin 100
▁bagira 100
▁ilyashi 100
ZI 100
▁Imfumu 100
▁masolo 100
zulu 100
▁bloed 100
▁tydens 100
▁nyina 100
shira 100
35 100
▁intsha 100
▁development 100
!) 100
funeka 100
▁Olu 100
thabatha 100
wela 100
bamba 100
▁awali 100
armee 100
▁abazi 100
oyo 100
▁sin 100
▁siyi 100
holo 100
JI 100
▁write 100
▁More 100
sili 100
▁président 100
mar 100
▁misschien 100
▁oyi 100
long 100
▁kotambola 100
▁bezi 100
▁ujumbe 100
▁centre 100
▁Kutu 100
▁EZALI 100
▁citabo 100
ntumwa 100
▁slaap 100
▁slechts 100
pie 100
banda 100
▁schreef 100
▁mwiza 100
▁tlang 100
sti 100
▁Que 100
▁held 100
▁kwaliba 100
qi 100
▁kadhaa 100
▁mhlawumbe 100
▁huidige 100
DA 100
▁miongoni 100
má 100
▁uchumi 100
▁based 100
sizwe 100
▁vandaag 100
▁mode 100
▁News 100
▁drink 100
kubona 100
▁ging 100
▁litsela 100
vel 100
▁groei 100
kweni 100
sk 100
▁Union 100
▁hond 100
iwe 100
▁ufise 100
36 100
▁sch 100
▁wrong 100
▁Geen 100
▁subject 100
▁dankie 100
ging 100
▁Times 100
lika 100
▁liste 100
▁bontšang 100
▁Johane 100
fikile 100
▁koboma 100
▁moyen 100
▁etumba 100
▁zin 100
ndisa 100
▁fapaneng 100
els 100
▁betaal 100
▁zorg 100
▁saw 100
▁moeder 100
lona 100
▁five 100
▁remember 100
▁kisiasa 100
▁kijamii 100
TE 100
▁kithi 100
thini 100
▁loketseng 100
▁jong 100
qiniso 100
jabula 100
ngeke 100
▁Gees 100
▁ngaphezulu 100
▁further 100
▁cikuuku 100
ique 100
▁parle 100
▁city 100
▁izingxenye 100
▁access 100
▁lama 100
ating 100
▁umeme 100
▁imisi 100
▁bakómaki 100
▁afhangend 100
lise 100
▁femmes 100
cula 100
▁communication 100
▁Non 100
▁metsoalle 100
▁simply 100
▁travers 100
▁Abana 100
▁dawa 100
▁ebusuku 100
▁kubomba 100
Kwa 100
▁court 100
phantsi 100
▁control 100
▁leef 100
loop 100
▁ize 100
▁finshi 100
60 100
▁ukupitila 100
▁lewens 100
▁stress 100
▁dochter 100
nele 100
▁bydrae 100
▁75 100
lelwa 100
▁Tanga 100
▁Tángá 100
▁imidlalo 100
▁hear 100
▁bak 100
ngaphakathi 100
▁Kungenzeka 100
▁doe 100
▁ngokwengeziwe 100
Mateyu 100
▁belangrijk 100
[ 100
▁Daniyeli 100
▁Post 100
▁fwe 100
bre 100
▁restaurant 100
▁bwanya 100
▁kolya 100
▁Ulaya 100
bonwa 100
▁bakeneye 100
▁matatizo 100
▁Mokili 100
▁move 100
▁présent 100
▁ukutula 100
▁girl 100
▁buite 100
weg 100
▁mntu 100
▁Ngesikhathi 100
ish 100
▁VI 100
rondera 100
▁informations 100
70 100
kama 100
anga 100
▁ubusuku 100
▁phahameng 100
▁tabeng 100
▁impact 100
pya 100
eleza 100
▁unique 100
▁bepaalde 100
▁winkel 100
29 100
▁droits 100
▁Abayuda 100
▁ezihlukahlukene 100
mukela 100
bura 100
▁26. 100
▁Umwin 100
▁araba 100
▁mère 100
▁pesa 100
▁Yona 100
▁metsi 100
▁1914 100
but 100
▁bakwazi 100
chukua 100
▁lyakwe 100
▁kobimisa 100
▁professionnelle 100
▁interesting 100
▁bihugu 100
ms 100
▁titre 100
▁zorgen 100
▁kosolola 100
▁Nee 100
▁mofut 100
lisi 100
manga 100
▁kuweka 100
▁Ngokufanayo 100
▁baeluda 100
▁réponse 100
▁(3) 100
boneka 100
▁mfise 100
beni 100
▁kutwishika 100
suma 100
▁DW 100
▁echter 100
▁komuntu 100
▁law 100
sekhaya 100
▁fort 100
▁ikaba 100
ijn 100
▁nieuw 100
▁single 100
▁ivyiza 100
▁add 100
▁mukuru 100
▁vakantie 100
▁beautiful 100
▁stuff 100
▁nombreux 100
▁India 100
▁mokomoko 100
▁Aya 100
peela 100
▁likely 100
▁vois 100
▁bakristo 100
▁view 100
▁mangata 100
ndima 100
▁28: 100
▁cintu 100
tangura 100
▁risque 100
▁2005 100
▁nouvelles 100
▁petits 100
kokuzithokozisa 100
▁Imilimo 100
▁waarbij 100
skap 100
▁ukum 100
▁nzambe 100
▁abane 100
▁kunzima 100
rushiriza 100
rou 100
nalo 100
32 100
▁geheel 100
▁IS 100
▁War 100
▁Yobu 100
fr 100
ngcwele 100
▁langer 100
▁angase 100
▁Ewe 100
deel 100
▁nne 100
▁januari 100
▁ahubwo 100
lic 100
▁likabo 100
▁London 100
▁known 100
Me 100
▁amathathu 100
▁appartement 100
▁gesprek 100
né 100
▁badala 100
▁batlang 100
ngela 100
ngekho 100
▁action 100
hlanga 100
▁tšebeletso 100
▁skep 100
▁akazi 100
▁izenzo 100
port 100
cent 100
▁wene 100
▁meest 100
ische 100
tɔ 100
▁(2 100
bandla 100
hambisana 100
ct 100
▁Brazil 100
▁1990 100
▁TO 100
▁inyama 100
sithi 100
▁brengen 100
▁DIE 100
led 100
bomfya 100
▁papier 100
▁verkoop 100
▁Michezo 100
▁gek 100
▁amaso 100
hali 100
▁nalapho 100
lila 100
▁Please 100
▁beha 100
▁Ibhokisi 100
▁guca 100
▁bakora 100
▁Namuhla 100
▁Verbind 100
hama 100
▁liyangani 100
▁lik 100
qeda 100
▁details 100
▁bopaki 100
▁chake 100
▁nkanda 100
ivya 100
▁Ju 100
Do 100
ves 100
▁yawe 100
▁Nje 100
▁eenvoudig 100
▁diverse 100
▁tempele 100
▁alingi 100
▁white 100
iyi 100
▁Thola 100
▁verseker 100
▁worth 100
▁ulimi 100
▁age 100
▁ibiri 100
▁ncwadi 100
▁laisser 100
▁ukukwata 100
▁peur 100
▁effect 100
nqaba 100
▁tovuti 100
▁Kuya 100
▁gezien 100
▁Mwanza 100
▁aange 100
▁iseluleko 100
▁jeunes 100
vumela 100
pri 100
▁Ngaphambi 100
▁Kusukela 100
tumwa 100
▁bwafya 100
▁nshasha 100
▁hemel 100
girwa 100
▁yoshobora 100
Ngi 100
▁ezimbi 100
▁zaken 100
▁kiongozi 100
▁beau 100
twalilila 100
▁result 100
▁ngezi 100
▁comprendre 100
▁okuthiwa 100
▁Ivyanditswe 100
file 100
▁écrit 100
▁bladsy 100
▁fan 100
hitaji 100
▁yinto 100
Al 100
▁thinking 100
▁abalandeli 100
▁amaninzi 100
▁enza 100
▁chakula 100
▁lili 100
Ki 100
▁waya 100
bwira 100
▁ngaleso 100
iser 100
▁kuthiwa 100
tyd 100
nceda 100
▁stil 100
ngxenye 100
▁nyeranda 100
▁Kunalokho 100
▁waardoor 100
▁othi 100
cetekela 100
▁tried 100
▁figure 100
▁ar 100
▁emazweni 100
▁nationale 100
▁yazo 100
▁vrouwen 100
▁maanden 100
app 100
▁barutuoa 100
▁verskillende 100
▁Nka 100
▁total 100
▁Val 100
▁ieder 100
▁plaatsen 100
▁kwigisha 100
rerekana 100
▁Dankie 100
▁kulanda 100
linde 100
▁ukweli 100
▁Uyu 100
▁muziki 100
▁words 100
aar 100
▁Video 100
▁pain 100
▁Michael 100
▁ambacho 100
shila 100
▁iliyopita 100
sosa 100
▁vitu 100
▁ezilungileyo 100
▁cifulo 100
▁kurondera 100
busa 100
qua 100
▁especially 100
▁bied 100
dis 100
tshe 100
▁Italy 100
▁siba 100
▁president 100
▁boitsebiso 100
▁motó 100
▁autant 100
pesha 100
▁kokamwa 100
▁quel 100
cele 100
▁sluit 100
▁usebenzisa 100
ua 100
▁hatari 100
▁looked 100
▁mwili 100
kuru 100
▁holimo 100
ete 100
▁Petelo 100
abord 100
cila 100
▁bamposa 100
neng 100
ima 100
panda 100
vugwa 100
▁karakter 100
▁direction 100
ac 100
80 100
▁ministre 100
▁key 100
▁okwengeziwe 100
▁ayebaki 100
▁jikelele 100
▁Katiba 100
▁tšoana 100
suke 100
▁phelang 100
▁wona 100
aal 100
▁vient 100
phezulu 100
▁culture 100
▁haholoanyane 100
umfwa 100
▁Two 100
▁autour 100
▁Waarom 100
▁ubuhlungu 100
loa 100
onyana 100
▁ungase 100
Zwi 100
▁inama 100
yisi 100
▁tsamaiso 100
rus 100
â 100
▁KIDAT 100
▁bwite 100
▁mutende 100
▁Mokolo 100
▁Uwanja 100
▁lorsque 100
▁wawili 100
▁application 100
uf 100
▁besi 100
dwa 100
▁Tume 100
▁ubuhe 100
punt 100
▁kujua 100
▁april 100
▁français 100
penda 100
ruka 100
tor 100
ants 100
▁ges 100
tende 100
▁vorige 100
▁iko 100
▁ilanga 100
▁izinga 100
ara 100
pinda 100
thile 100
▁span 100
▁programma 100
▁wait 100
▁mate 100
▁molende 100
bar 100
▁kufa 100
▁heard 100
▁below 100
ide 100
▁Baiseraele 100
▁600 100
▁bothata 100
cy 100
▁mosebetsing 100
▁tlaase 100
▁watumishi 100
▁voort 100
▁Shikulu 100
▁ukutwalilila 100
▁professional 100
▁derde 100
▁living 100
▁Sika 100
– 100
▁WAZIRI 100
▁oktober 100
▁shonse 100
lk 100
mashiwi 100
▁zwe 100
▁products 100
sangwa 100
benza 100
▁pi 100
▁sihloko 100
▁waarheid 100
▁beide 100
▁mazungumzo 100
▁behoort 100
▁1995 100
▁kwirinda 100
▁ukukhanya 100
▁difficile 100
sion 100
▁usiku 100
▁ubone 100
▁ake 100
mani 100
▁kikaba 100
▁Pantu 100
▁Hape 100
▁ukukhuluma 100
▁phone 100
nono 100
hlaba 100
▁Ve 100
▁mission 100
▁maart 100
▁guhindura 100
int 100
▁BBC 100
▁software 100
▁entse 100
pper 100
vumelana 100
▁matin 100
sondela 100
▁ondersoek 100
▁CD 100
▁venir 100
vy 100
vyi 100
▁kwacu 100
lama 100
▁Mor 100
hlanzekile 100
▁Mawasiliano 100
▁grâce 100
▁bamunyinefwe 100
loko 100
▁kidogo 100
▁match 100
▁ruim 100
▁akora 100
▁enhliziyweni 100
▁Prof 100
▁bakwiye 100
▁ratang 100
▁ngingo 100
▁rug 100
▁bord 100
▁uru 100
kuqala 100
▁PA 100
hana 100
▁hare 100
▁découvrir 100
▁bidahera 100
▁quelqu 100
siya 100
▁imihla 100
indawo 100
-18 100
izo 100
▁Cebo 100
leti 100
piga 100
▁mans 100
▁homme 100
▁komonana 100
▁yakoze 100
intanethi 100
▁encwadini 100
sé 100
▁bidhaa 100
▁babiri 100
rafise 100
▁Ego 100
▁Kuli 100
▁Ah 100
▁space 100
▁bizo 100
erd 100
▁Mokreste 100
▁november 100
▁kibazo 100
▁amazing 100
▁bozali 100
▁eliphezulu 100
way 100
▁ABA 100
▁imiphumela 100
▁bobeli 100
▁ababili 100
▁kiringo 100
▁kufikia 100
seduze 100
▁ngokugcwele 100
▁kutendeka 100
▁ubwiwe 100
▁marché 100
gaan 100
leki 100
fanyika 100
▁zami 100
BO 100
ELE 100
▁besef 100
ikala 100
▁guha 100
▁babu 100
tangaza 100
phelele 100
▁Yenza 100
mone 100
▁haraka 100
sheni 100
▁Mora 100
nisa 100
▁izinhlobo 100
▁komema 100
kuthola 100
▁verloor 100
baba 100
▁morning 100
▁gas 100
▁ontstaan 100
aide 100
▁étaient 100
bonye 100
▁enjoy 100
hlukile 100
ziwa 100
gume 100
bisa 100
▁Day 100
kuye 100
▁kotinda 100
slag 100
shauri 100
▁butu 100
▁umdlalo 100
▁ubwafya 100
▁Free 100
▁ngoNkulunkulu 100
▁boloka 100
shaya 100
iso 100
IN 100
▁mutwe 100
non 100
▁kurya 100
▁ezimbini 100
▁itatu 100
▁22, 100
▁Yaye 100
▁knew 100
▁brief 100
▁EN 100
▁Mara 100
▁iindlela 100
23 100
nko 100
IT 100
eerde 100
yingxenye 100
finyelela 100
mmer 100
▁diens 100
▁ukubombela 100
▁waka 100
▁Bibeleng 100
▁daarop 100
▁letter 100
lam 100
▁arrive 100
▁Seo 100
▁sehlopha 100
▁jimbo 100
▁Yohana 100
funga 100
ondoa 100
▁zowel 100
ncane 100
maak 100
lefwaya 100
kulo 100
▁gou 100
▁linalo 100
▁Are 100
lawula 100
rais 100
▁condition 100
▁fu 100
mifanekiso 100
▁ulupwa 100
AL 100
▁SE 100
soze 100
▁kobongola 100
loe 100
▁amathuba 100
▁Onze 100
▁buang 100
▁kha 100
▁Moo 100
▁banje 100
ryo 100
ever 100
cipfuzo 100
▁lipotso 100
▁prise 100
▁Baroma 100
▁building 100
▁bupe 100
▁Mw 100
▁pekee 100
▁gegaan 100
sukwini 100
▁nyama 100
▁longtemps 100
aji 100
tats 100
▁cannot 100
▁period 100
▁51 100
▁Life 100
▁bwananyina 100
▁gave 100
▁bashimapepo 100
▁verlede 100
als 100
▁hoogte 100
▁27. 100
▁Son 100
shwe 100
▁Ake 100
▁35. 100
▁beheer 100
gcine 100
▁Jéhovah 100
▁hamorao 100
▁problems 100
▁THE 100
02 100
bandanya 100
▁waqala 100
▁Af 100
▁Yisalaele 100
▁leqephe 100
Lu 100
hlelo 100
▁correct 100
▁mazali 100
▁Bungaz 100
maat 100
▁sengi 100
phetha 100
lungiselela 100
09 100
▁ntoa 100
mama 100
▁limilione 100
▁bwesu 100
▁lange 100
▁zokugcina 100
▁Bill 100
▁kaart 100
▁wabunge 100
▁ukutontonkanya 100
▁mesebetsi 100
▁camera 100
▁kujenga 100
▁kata 100
▁doivent 100
▁minimum 100
door 100
▁mwanakashi 100
▁makala 100
▁insansa 100
▁matsatsi 100
▁Yari 100
ronka 100
thenga 100
▁botho 100
▁abaye 100
Bu 100
bonakalisa 100
▁daarmee 100
▁sifa 100
▁koboya 100
tura 100
▁baby 100
▁Into 100
pre 100
▁stories 100
▁season 100
▁izigidi 100
▁Tokoki 100
tanguye 100
▁ubuyobozi 100
▁Talá 100
▁Taasisi 100
▁Umutumwa 100
▁rondom 100
▁topic 100
▁botsa 100
500 100
▁prachtige 100
menye 100
▁kilo 100
▁Am 100
cal 100
▁kuingia 100
▁Koluka 100
▁Cabanga 100
urukundo 100
webhusayithi 100
▁Isimo 100
▁hit 100
▁mort 100
▁lumella 100
▁inqanawa 100
▁Ukwabul 100
ase 100
▁Cet 100
▁afgelope 100
▁Ibi 100
gendera 100
▁lililo 100
MO 100
▁esale 100
▁major 100
▁mekhoa 100
bana 100
▁umutumwa 100
▁nakakhulu 100
vakalelwa 100
histoire 100
▁source 100
nethemba 100
▁décision 100
.— 100
▁anasema 100
fikia 100
▁kern 100
▁bout 100
▁yathi 100
▁kwiwe 100
▁haja 100
bhalwe 100
▁maliboho 100
▁eintlik 100
▁Esaia 100
ence 100
▁hieronder 100
▁include 100
plan 100
▁gusoma 100
▁Omdat 100
▁Help 100
husiana 100
▁igitabu 100
▁Yisaya 100
▁batatu 100
▁oude 100
▁hen 100
sinda 100
ative 100
▁urugero 100
▁event 100
▁quality 100
▁Health 100
ph 100
▁besoek 100
tch 100
▁likama 100
▁pole 100
pos 100
▁Mwi 100
▁bane 100
▁inzira 100
▁inkululeko 100
▁Kwathi 100
▁pot 100
ij 100
▁Va 100
▁IM 100
▁bahlanka 100
▁Ngu 100
▁mapepo 100
▁Fedha 100
▁mark 100
papa 100
▁kulekelesha 100
▁wish 100
▁siza 100
funde 100
▁Mahakama 100
ug 100
▁protection 100
▁bantunse 100
▁Umthombo 100
▁geskryf 100
homme 100
meni 100
áká 100
foto 100
▁slag 100
lungu 100
▁aucune 100
bheke 100
▁musiek 100
▁Sasi 100
Ja 100
▁iisuma 100
lelanda 100
▁Moshe 100
▁machine 100
▁wafanyakazi 100
▁gelijk 100
▁woman 100
▁Faka 100
shitse 100
fumaneka 100
mia 100
▁follow 100
rig 100
kra 100
liso 100
▁games 100
kozala 100
▁heen 100
▁Avec 100
▁wanachama 100
▁huyu 100
▁Why 100
▁ncha 100
ical 100
▁veilig 100
▁ukuhlala 100
tig 100
zuza 100
▁babi 100
▁kubombela 100
▁maande 100
▁biedt 100
▁december 100
▁qeta 100
▁zetten 100
▁cupo 100
▁bacita 100
kómaki 100
▁37: 100
Nkosi 100
▁batari 100
ming 100
▁luister 100
▁minei 100
konka 100
▁56 100
nene 100
▁twe 100
▁Ngokuvamile 100
▁needed 100
nyanga 100
naki 100
▁imininingwane 100
▁kulesi 100
▁kulokhu 100
▁mwenyewe 100
phatha 100
▁moderne 100
▁Yayi 100
kaze 100
▁abaume 100
some 100
susa 100
nike 100
hlabathi 100
▁ukumu 100
▁komikitisa 100
▁Yosefe 100
▁ngorane 100
nia 100
▁mona 100
beke 100
vusa 100
▁ncito 100
umba 100
▁wasi 100
▁mother 100
kwamukela 100
▁mos 100
fumine 100
-10 100
▁parfois 100
▁ehlabathini 100
▁nacht 100
ila 100
▁différents 100
zibuza 100
▁sita 100
▁miti 100
ments 100
nkolo 100
Bi 100
▁koning 100
poosa 100
▁fila 100
dom 100
▁ndiya 100
▁items 100
▁behind 100
▁kisheria 100
▁bafyashi 100
tika 100
▁private 100
▁leren 100
▁oyedwa 100
▁kesi 100
▁interest 100
bambe 100
▁kuhle 100
▁propre 100
▁idée 100
magazini 100
▁Good 100
▁mafanikio 100
▁Genese 100
▁Groot 100
▁Ten 100
▁120 100
▁sehloohong 100
▁klanten 100
▁lilemong 100
▁elihle 100
▁haven 100
▁kiri 100
vya 100
ingia 100
▁inkolo 100
uur 100
lima 100
fungwa 100
▁66 100
▁Encyclopedia 100
▁leholimo 100
mizi 100
MI 100
▁bestaat 100
▁kinacho 100
▁kini 100
▁mm 100
zungu 100
▁hai 100
34 100
Lizwi 100
Ye 100
▁kozela 100
▁gukeka 100
▁shilingi 100
weka 100
kabila 100
thela 100
muzi 100
▁kikao 100
mvu 100
▁morao 100
ensemble 100
▁vyerekana 100
ssa 100
ngendawo 100
▁bieden 100
55 100
▁gouvernement 100
▁nendawo 100
▁enkel 100
è 100
▁section 100
baningi 100
▁ijwi 100
▁Yonke 100
▁histoire 100
cacile 100
tani 100
▁amakoraniro 100
▁works 100
Po 100
▁cacu 100
37 100
▁esizayo 100
fini 100
): 100
▁ways 100
▁agateka 100
▁binadamu 100
▁village 100
▁review 100
sinika 100
▁enfant 100
▁bibi 100
▁okuyi 100
▁YO 100
iste 100
▁sense 100
▁Lisol 100
siwe 100
▁Uchaguzi 100
▁botšepehi 100
ologie 100
▁mauaji 100
▁likolo 100
▁elithile 100
NE 100
▁kelello 100
▁omusha 100
chazwa 100
▁ubaba 100
▁sait 100
▁yalo 100
shoboye 100
▁Ligi 100
▁ngazi 100
▁1998 100
▁gekry 100
nxusa 100
kunika 100
▁matangazo 100
▁emihle 100
▁unyaka 100
▁sikwazi 100
▁elilingi 100
ult 100
tshi 100
uff 100
▁February 100
TU 100
▁politieke 100
pesi 100
uni 100
▁gharama 100
▁période 100
SHA 100
balulekile 100
▁ngubani 100
sini 100
▁Martin 100
tz 100
▁simplement 100
elijke 100
▁mening 100
▁normal 100
ngene 100
labo 100
▁Kanye 100
▁amakuru 100
tiese 100
▁borapeli 100
soka 100
▁Uganda 100
▁inhoud 100
▁ose 100
▁draai 100
▁Conseil 100
▁amenshi 100
▁wayenga 100
▁heerlijk 100
▁Har 100
▁bivuye 100
umugore 100
▁ilungelo 100
▁build 100
▁manque 100
▁santu 100
▁facile 100
▁yezinto 100
▁1991 100
▁tabia 100
▁fille 100
▁molimo 100
kila 100
ndela 100
khethe 100
▁mobulu 100
mme 100
▁Ekoki 100
▁Ndeko 100
▁uwundi 100
▁kupanga 100
▁trip 100
▁imvo 100
▁masi 100
twafwa 100
▁amaphoyisa 100
▁afstand 100
▁Sal 100
▁Yozefu 100
▁moeeng 100
▁Kampuni 100
▁igituma 100
▁Wel 100
▁namelijk 100
▁akekho 100
▁zoveel 100
kota 100
▁raia 100
▁Konke 100
▁nabantwana 100
▁salle 100
▁sizo 100
▁mogen 100
ngaphezu 100
▁tula 100
▁kokanga 100
tjies 100
▁umyeni 100
▁ardhi 100
▁gato 100
▁Yiqiniso 100
▁boyengebene 100
▁Mesiya 100
era 100
▁credit 100
▁eduze 100
▁barabara 100
▁kwikala 100
▁aanvaar 100
▁Leli 100
size 100
▁juiste 100
kanda 100
▁class 100
▁Mtendaji 100
▁boikutlo 100
▁tale 100
▁Germany 100
ibela 100
khule 100
ID 100
▁boba 100
▁eseng 100
▁ngokukhethekile 100
menza 100
▁Nalimo 100
▁swart 100
▁bestuur 100
▁malamumalamu 100
▁vacances 100
staan 100
▁UPawulu 100
▁maarufu 100
▁omuhle 100
▁yintoni 100
hluleka 100
▁Albert 100
▁ciza 100
▁Russia 100
lola 100
kie 100
▁Kazi 100
▁Abazali 100
▁uti 100
bonga 100
▁Lefatše 100
kel 100
▁raad 100
▁intahe 100
▁types 100
▁engaphezu 100
▁afgelopen 100
▁muto 100
▁studie 100
eel 100
ntliziyo 100
▁juli 100
▁among 100
▁ifibusa 100
▁kamano 100
▁ngiro 100
setyenziswa 100
▁transport 100
▁isono 100
▁fyaba 100
▁umugore 100
▁Masese 100
▁ngokusebenzisa 100
sika 100
▁Neem 100
-5 100
ngenaku 100
▁kwerekana 100
pashanya 100
▁beleid 100
▁kobima 100
▁oplossing 100
▁Ukufuma 100
▁teken 100
▁search 100
belele 100
▁death 100
▁aandacht 100
33 100
▁ngokuqinisekile 100
▁mapema 100
▁similar 100
▁apesi 100
▁nkembo 100
▁onthou 100
▁woning 100
omba 100
▁komi 100
yenza 100
22 100
▁alishibe 100
▁madini 100
▁maalum 100
US 100
ARA 100
▁imiku 100
shize 100
kudala 100
▁ulya 100
▁ura 100
▁bakirisu 100
-4 100
bulawa 100
▁movie 100
jabulela 100
▁His 100
hale 100
▁tien 100
▁kusi 100
▁Uingereza 100
▁oë 100
▁woba 100
▁père 100
▁Inc 100
sá 100
▁kenshi 100
▁noem 100
▁kubonisa 100
▁Onder 100
het 100
▁Mac 100
▁stellen 100
▁valt 100
▁ti 100
▁kuchukua 100
▁souhaite 100
▁uyazi 100
▁pages 100
▁trou 100
▁bekende 100
▁arm 100
▁Molao 100
En 100
ney 100
▁mars 100
▁Bali 100
▁meng 100
▁abayoboke 100
▁dutegerezwa 100
▁kuquka 100
veld 100
aurais 100
▁huru 100
▁sorte 100
▁Benki 100
▁bereik 100
rant 100
▁aliyekuwa 100
▁abesifazane 100
▁zili 100
nkulungwane 100
▁ngirakamaro 100
▁Rimbura 100
▁Buka 100
66 100
▁Jimbo 100
▁Marko 100
malungelo 100
bipa 100
▁risk 100
▁ukuthini 100
▁ngolu 100
▁vont 100
▁Izindawo 100
▁leminyaka 100
▁ontwikkeling 100
▁lohle 100
▁gihambaye 100
nhliziyo 100
oni 100
dale 100
ronse 100
▁umkhaya 100
▁ekosalisa 100
▁alelanda 100
,+ 100
▁nalokho 100
▁chacun 100
7... 100
▁moapostola 100
▁daarvoor 100
▁contract 100
iers 100
▁répondre 100
▁Ex 100
▁lien 100
▁tafel 100
car 100
▁yongera 100
▁Siya 100
▁khetha 100
Umu 100
▁eso 100
▁emihlanganweni 100
▁vivre 100
SHI 100
▁President 100
▁bazwaki 100
▁esili 100
▁2002 100
▁bike 100
▁ayant 100
▁ingqondo 100
nokuba 100
▁Mosala 100
▁ngokwakhe 100
95 100
▁liggen 100
▁problèmes 100
▁kusambilila 100
kanisi 100
▁akaryo 100
▁Boek 100
ator 100
nzima 100
▁positive 100
pepa 100
▁wama 100
▁running 100
▁peau 100
▁’? 100
▁opleiding 100
twara 100
▁Thomas 100
▁abangane 100
▁33. 100
▁focus 100
hou 100
▁schade 100
▁sex 100
▁PICHA 100
dini 100
▁botle 100
shoboka 100
▁kumi 100
...... 100
▁juist 100
▁gutera 100
▁Mesia 100
▁dating 100
nner 100
▁balecita 100
▁document 100
zEnzo 100
▁nguye 100
▁sezi 100
gue 100
▁nale 100
kutana 100
▁Top 100
▁due 100
▁Jerusalema 100
▁ouers 100
▁ontwerp 100
▁Pre 100
▁abari 100
▁ifyaba 100
▁Liproverbia 100
▁bankulutu 100
▁voice 100
▁bitumba 100
ip 100
thinta 100
31 100
▁ukukonka 100
▁Abaroma 100
hlukanisa 100
▁njengoku 100
▁makkelijk 100
mfundo 100
tting 100
ido 100
▁kuleta 100
▁maat 100
▁Ujerumani 100
▁members 100
▁Yeremiya 100
▁sh 100
▁bengi 100
onder 100
▁plat 100
▁donné 100
▁[“ 100
▁boeken 100
▁lichaba 100
▁bamona 100
sifo 100
▁sami 100
▁value 100
ngaphansi 100
water 100
curo 100
▁Kikuu 100
▁III 100
buhlungu 100
▁zikaJehova 100
▁sign 100
▁prima 100
▁Pet 100
▁kakade 100
▁kahise 100
▁Christ 100
▁maybe 100
njenge 100
▁ready 100
▁Njengoko 100
▁babenga 100
fasha 100
▁merk 100
▁Ekugcineni 100
nzo 100
▁nakwi 100
▁Uhoraho 100
▁angaba 100
▁Kanisa 100
▁ongu 100
wat 100
urupfu 100
▁uyise 100
06 100
▁izindi 100
▁Mkutano 100
▁trouvé 100
▁bayebi 100
▁outside 100
▁ngalinye 100
▁abaYuda 100
▁bezig 100
▁Hotel 100
▁ukubika 100
▁tle 100
ques 100
▁nécessaire 100
▁naseku 100
▁nzira 100
▁Men 100
kuta 100
▁boikarabelo 100
▁september 100
▁themselves 100
▁khethehileng 100
▁bazalaka 100
lani 100
▁nouveaux 100
▁staff 100
ike 100
▁hold 100
▁holim 100
▁mba 100
▁tano 100
▁Singa 100
tungulula 100
Ya 100
▁ibanga 100
▁basa 100
▁learning 100
▁general 100
don 100
▁kampeni 100
▁Mwalimu 100
▁lopen 100
ters 100
▁abangamaKristu 100
▁belangrik 100
▁Anna 100
▁nili 100
▁Awe 100
lungele 100
shikirwa 100
▁Elisha 100
▁diere 100
▁ngum 100
▁bangase 100
▁tra 100
▁keuze 100
koreshwa 100
▁management 100
▁sound 100
▁gedoopt 100
▁bevat 100
mira 100
ngozi 100
tant 100
▁kotyela 100
▁wayi 100
▁mino 100
▁guide 100
▁Ubwa 100
baka 100
▁akwiye 100
▁WE 100
▁Nog 100
▁lwalu 100
▁blij 100
▁umphostoli 100
▁vlak 100
girira 100
▁zouden 100
▁yesiNgesi 100
▁uMbuso 100
▁pratique 100
▁menso 100
▁gelukkig 100
▁feeling 100
▁ukufumana 100
▁hlo 100
▁geskiedenis 100
qonde 100
ship 100
▁AMA 100
▁mipepele 100
▁Ukusokolola 100
▁izici 100
▁safari 100
▁ngokuvumelana 100
action 100
▁Mina 100
▁Woord 100
rwijl 100
kker 100
▁ukwaziswa 100
▁baume 100
yena 100
akenshi 100
▁kwamanye 100
neni 100
lement 100
▁mamlaka 100
▁penepene 100
▁bawe 100
▁miezi 100
▁Mwenyezi 100
▁ekuseni 100
▁bishoboka 100
▁ukutya 100
▁Kakhulu 100
▁tugira 100
-12 100
lungisa 100
▁ES 100
▁rendre 100
▁kanaka 100
mntwana 100
ndle 100
ngcono 100
idée 100
▁okunga 100
▁Great 100
lijke 100
off 100
sama 100
▁kwumva 100
▁Grand 100
etse 100
her 100
▁bamaze 100
▁vifaa 100
trek 100
▁Ntoma 100
acha 100
▁amane 100
alela 100
▁bid 100
▁hospitali 100
▁From 100
bekwa 100
yibona 100
let 100
lwandle 100
▁diep 100
▁kwiyumvira 100
ola 100
▁TU 100
▁history 100
PO 100
kamer 100
▁Lowo 100
▁hlokang 100
▁particulier 100
▁amount 100
▁elisha 100
▁sahihi 100
▁Calo 100
Jo 100
▁liggaam 100
▁umsindo 100
tshintsha 100
▁tattoo 100
goed 100
lot 100
▁bakwata 100
phathelene 100
▁ninga 100
▁kinder 100
▁appel 100
▁mehla 100
▁ukuhlakanipha 100
▁ayebi 100
▁monyetla 100
iese 100
▁devrait 100
▁favorite 100
▁napamo 100
▁Quand 100
▁Maka 100
▁Moize 100
▁concept 100
▁2003 100
ngama 100
▁verskyn 100
▁kupita 100
27 100
▁kusaidia 100
shimika 100
St 100
▁rock 100
▁evela 100
agaciro 100
38 100
▁epesaka 100
▁ibili 100
▁rend 100
▁miradi 100
▁Bekijk 100
▁note 100
▁usually 100
▁kwesi 100
▁frais 100
▁Ilingi 100
bou 100
▁Ukutendeka 100
sikhathi 100
waar 100
▁kotonga 100
▁moeite 100
eke 100
kusho 100
▁answer 100
▁eze 100
▁terre 100
▁mannen 100
▁kunst 100
▁kwubaka 100
▁haha 100
cindama 100
là 100
umuryango 100
▁Elke 100
dlule 100
2. 100
nawo 100
▁spelen 100
▁longer 100
▁inyaniso 100
Airbnb 100
▁décembre 100
gomba 100
▁umutende 100
▁nguThixo 100
TO 100
▁nginga 100
▁regtig 100
▁gemeenskap 100
▁boima 100
tien 100
▁belang 100
sababisha 100
▁ontvangen 100
▁England 100
▁duur 100
cishe 100
▁gelegen 100
▁Also 100
▁umngane 100
▁nxa 100
▁gestion 100
▁barua 100
wazi 100
▁Pu 100
▁certainly 100
▁26: 100
▁esalisaki 100
twalilile 100
▁meter 100
▁image 100
cwa 100
▁structure 100
▁hi 100
▁bategerezwa 100
▁education 100
▁isizwe 100
napaswa 100
▁kand 100
ikibi 100
▁certaines 100
▁DA 100
▁isimiso 100
minyakeni 100
▁Oyingqayizivele 100
ANC 100
▁maba 100
ME 100
▁boni 100
thathe 100
▁bawo 100
▁vond 100
▁gari 100
▁kwigana 100
▁krag 100
▁kushiriki 100
▁term 100
▁bakaNkulunkulu 100
▁izono 100
▁wayese 100
▁neer 100
▁sim 100
▁yerekana 100
Inderetsi 100
▁relation 100
▁boiteko 100
▁Umwe 100
▁imikalile 100
▁bebe 100
▁recent 100
hlasela 100
▁step 100
▁saying 100
ble 100
▁IsiNgesi 100
ors 100
▁wachezaji 100
▁Europa 100
▁waziri 100
▁24, 100
▁Nederlands 100
landele 100
▁umKristu 100
▁ntate 100
win 100
▁upinzani 100
▁geweet 100
▁umfazi 100
▁ngokuphathelene 100
▁Kuhusu 100
SE 100
▁kwenziwa 100
hluke 100
▁umwami 100
ngqondo 100
▁talent 100
▁black 100
ida 100
▁lezo 100
▁nangona 100
▁ngee 100
lum 100
lingi 100
▁titel 100
▁partner 100
▁fut 100
▁citila 100
▁yanje 100
phume 100
▁impi 100
naweza 100
tijd 100
▁pla 100
▁behandeling 100
kuwe 100
▁pick 100
▁stage 100
▁kwakuyi 100
▁strong 100
nqanawa 100
▁park 100
▁komipesa 100
▁ubwoba 100
▁kauli 100
▁biro 100
beba 100
▁sokuthi 100
sebe 100
▁fiets 100
▁ensemble 100
▁Qui 100
▁kobebisa 100
put 100
▁mataifa 100
▁himself 100
tat 100
▁Mbeya 100
▁touch 100
▁Lyena 100
▁amona 100
▁instead 100
▁inyishu 100
▁ikihe 100
▁21, 100
▁talking 100
▁Uthando 100
▁mawe 100
▁moord 100
▁leholimong 100
▁specific 100
▁impahla 100
▁sleep 100
▁izifundo 100
▁echte 100
▁engena 100
ère 100
▁ukuziphatha 100
citila 100
▁verband 100
▁tri 100
▁books 100
londolola 100
aars 100
▁layo 100
▁Bien 100
▁bandako 100
▁Bambi 100
▁Kanti 100
▁gushobora 100
▁région 100
▁hommes 100
▁liketso 100
phambili 100
Uhoraho 100
▁Iki 100
▁keza 100
▁bei 100
48 100
▁Malembo 100
▁Watoto 100
▁esifanayo 100
▁volle 100
▁kuwu 100
memezela 100
fashe 100
▁strand 100
▁Imigani 100
▁ukubelenga 100
▁uhuru 100
▁goes 100
via 100
▁wasn 100
▁Mexico 100
vre 100
▁luya 100
▁uhlangothi 100
bro 100
▁thank 100
▁kusuka 100
▁imiti 100
▁brood 100
▁Pretoria 100
▁jeshi 100
▁umbuso 100
▁Emoniseli 100
▁juin 100
okukhansela 100
▁Mai 100
KI 100
▁ngabanye 100
tontonkanya 100
▁mwabo 100
▁ungu 100
▁présente 100
kati 100
heure 100
hela 100
▁Engels 100
▁telefoon 100
41 100
hara 100
haye 100
hisi 100
▁enfin 100
▁rede 100
fitaniye 100
▁ambalwa 100
▁Richard 100
▁Kamuva 100
lisha 100
▁mahanga 100
▁voldoende 100
hlele 100
▁Nowa 100
▁zokuhlala 100
tele 100
groep 100
▁Kukho 100
▁nomsebenzi 100
ramaze 100
likuwa 100
42 100
▁zomer 100
▁commun 100
▁Ngezinye 100
raad 100
▁janvier 100
▁tebileng 100
▁KaNkulunkulu 100
sakamana 100
▁sharing 100
▁international 100
kh 100
▁uamuzi 100
▁ngomoya 100
▁patients 100
ING 100
▁Bank 100
▁haciye 100
▁itakuwa 100
▁kopen 100
▁precies 100
▁milende 100
olo 100
▁near 100
seka 100
▁geschikt 100
▁board 100
▁igunya 100
▁ayenga 100
▁fast 100
manzi 100
▁office 100
▁voorzien 100
▁umzekelo 100
▁akwazi 100
kanga 100
▁commission 100
▁ilivyo 100
Abayuda 100
▁Empeleni 100
▁1993 100
bon 100
liswe 100
▁mbeka 100
nhlangano 100
▁Mjini 100
▁demander 100
tela 100
▁fijn 100
êre 100
▁entreprises 100
▁fout 100
ized 100
kte 100
ntsapho 100
-20 100
gre 100
▁verskeie 100
▁basoda 100
▁While 100
▁projets 100
▁linaheng 100
▁kilimo 100
▁Blog 100
tokana 100
riye 100
▁persoonlijke 100
▁god 100
▁thaba 100
tahura 100
▁Soviet 100
▁kuse 100
▁Hitler 100
état 100
▁results 100
▁App 100
geza 100
▁aanwezig 100
▁zondag 100
▁kanje 100
▁eind 100
▁vader 100
▁Kanjani 100
▁ukumbi 100
▁kobanda 100
▁kwalenga 100
▁wabonisa 100
▁tango 100
▁commence 100
▁khale 100
▁mingimingi 100
nc 100
05 100
▁ilizwi 100
▁tletseng 100
▁Tot 100
tasha 100
gitabu 100
▁beku 100
▁lapeng 100
lungile 100
▁location 100
▁pepe 100
▁gone 100
▁plant 100
Te 100
▁population 100
▁ngoxa 100
recht 100
back 100
▁thanks 100
▁Sauli 100
▁Hona 100
▁ntu 100
▁mwine 100
▁NG 100
▁House 100
munye 100
▁tšebeletsong 100
▁CO 100
▁modern 100
erde 100
▁senza 100
ral 100
▁calenga 100
ppen 100
▁lost 100
▁ada 100
▁kumona 100
▁kuishi 100
▁Zijn 100
▁250 100
▁solutions 100
▁somuntu 100
▁abangaphezu 100
▁Web 100
▁54 100
▁niya 100
▁veld 100
nus 100
▁umculo 100
▁bashi 100
▁Atile 100
▁ambavyo 100
▁Ifikope 100
▁lule 100
▁umwanakashi 100
bs 100
▁etumbu 100
▁invloed 100
▁kuyinto 100
▁isifo 100
▁carbon 100
lose 100
▁ijuru 100
Yo 100
▁Eku 100
▁ndoda 100
▁voorbeeld 100
lekisa 100
▁bonahalang 100
mark 100
▁inderdaad 100
ikinyoma 100
▁Okokuqala 100
▁dikwels 100
pfa 100
usi 100
▁Abengi 100
49 100
HA 100
kulungele 100
▁ezintweni 100
▁parties 100
▁kukaJesu 100
ys 100
▁kwaze 100
▁See 100
▁hakaba 100
▁vyf 100
-16 100
▁Mary 100
thembisa 100
▁companies 100
▁ebomini 100
▁kukana 100
Ge 100
▁kubomfya 100
▁Fu 100
▁ikiwemo 100
ol 100
aseng 100
▁wenyewe 100
baki 100
▁asengelaki 100
▁mwanzo 100
▁ajali 100
nwe 100
▁pourra 100
▁angaphezu 100
▁conseil 100
▁esalisaka 100
▁areas 100
▁MI 100
▁Tšenolo 100
▁buisana 100
▁First 100
▁presque 100
▁kikubwa 100
▁meerdere 100
lizwe 100
▁Black 100
▁umugambi 100
aires 100
teur 100
▁written 100
après 100
streeks 100
▁khahlan 100
▁amis 100
▁phuthehong 100
leya 100
▁ishiwi 100
ishure 100
▁pula 100
ngathanda 100
▁prend 100
▁common 100
▁matière 100
▁definitely 100
▁kwafwa 100
kukhona 100
shiye 100
▁send 100
ole 100
▁bamonaki 100
bali 100
pad 100
bazi 100
▁HA 100
▁sina 100
▁Site 100
▁Museum 100
▁Hassan 100
▁mè 100
▁oorlog 100
▁bukaThixo 100
well 100
▁inkinga 100
▁peine 100
koma 100
▁uPetru 100
▁étant 100
▁kunazo 100
▁mazi 100
▁Marie 100
▁prachtig 100
▁Dieu 100
wahi 100
▁personeel 100
75 100
▁Uthe 100
▁ukwe 100
▁excellent 100
▁kwizigira 100
▁HAYA 100
jenga 100
FYA 100
▁kosilisa 100
RO 100
▁Asi 100
not 100
▁kamati 100
▁Uti 100
sook 100
▁Moi 100
▁Star 100
▁botla 100
straat 100
▁ngase 100
▁abadlali 100
nkcazelo 100
▁kira 100
▁Then 100
▁mokhatlo 100
▁technique 100
▁shimbi 100
▁existe 100
▁mer 100
▁kotambwisa 100
43 100
▁isano 100
▁locatie 100
mag 100
▁résultats 100
yela 100
▁agree 100
nyane 100
▁pagina 100
▁Klik 100
▁ngiye 100
▁wonderful 100
landapo 100
▁izimvu 100
lembwa 100
▁kanzima 100
igheid 100
▁zomi 100
▁mpa 100
▁betrokke 100
msebenzi 100
▁République 100
▁atila 100
▁dioxide 100
▁molato 100
Ik 100
▁Enfin 100
▁Kumelwe 100
ES 100
▁tempelo 100
▁Jijini 100
▁okunjalo 100
▁engcwele 100
▁FC 100
▁kodi 100
rakwiye 100
endelea 100
▁fall 100
▁takes 100
▁bal 100
▁Mas 100
nqoba 100
▁gang 100
lande 100
▁ukumfwa 100
▁dois 100
io 100
▁wilde 100
▁juillet 100
▁bufumu 100
▁mapenzi 100
▁tloaelehileng 100
▁kulabo 100
▁wanaume 100
nshi 100
▁liteya 100
lalele 100
rij 100
muka 100
▁Dunia 100
▁voyage 100
cle 100
▁happen 100
nikwe 100
▁TA 100
▁kiezen 100
▁jumla 100
▁speletjies 100
▁gedurende 100
▁ukwikala 100
▁ID 100
nazo 100
▁hōle 100
▁ouders 100
▁consider 100
gan 100
▁Ukuthi 100
▁mine 100
▁bolamu 100
zayo 100
wezesha 100
▁Art 100
rabi 100
▁lwakwe 100
sile 100
▁Mhlawumbe 100
▁algemene 100
▁construction 100
▁tlaleho 100
▁smaak 100
▁father 100
sem 100
▁baadaye 100
▁difficult 100
nama 100
dha 100
▁dukeneye 100
▁kano 100
huza 100
senze 100
lishiba 100
▁amanga 100
▁places 100
▁enoa 100
▁twale 100
▁Heilige 100
▁molaetsa 100
▁guerre 100
▁tjena 100
▁kubika 100
amour 100
▁changer 100
asi 100
▁Tri 100
▁icilonganino 100
▁interested 100
▁contrôle 100
▁vinnig 100
▁umphumela 100
▁sokuqala 100
kufuneka 100
paka 100
fwaisha 100
mazwi 100
▁meeting 100
▁abagenzi 100
Ro 100
▁Washington 100
lezi 100
▁kobondela 100
▁bong 100
▁Nani 100
saki 100
▁Eqinisweni 100
imarisha 100
▁umwaume 100
▁ngamazwi 100
▁yigisha 100
yala 100
lezo 100
▁ziba 100
▁ugira 100
▁bwari 100
ulu 100
▁Cishe 100
▁ndambo 100
▁owesifazane 100
▁kilicho 100
phephe 100
kade 100
▁series 100
ili 100
▁khopo 100
▁kosangisa 100
▁tube 100
taal 100
terwa 100
▁fil 100
husu 100
hlobene 100
▁particular 100
▁lead 100
▁brought 100
▁tlhaho 100
▁création 100
▁thamani 100
▁Lingomba 100
▁bheka 100
▁Okoki 100
sindisa 100
zanga 100
▁Viongozi 100
▁turned 100
▁Alles 100
▁posts 100
tis 100
...) 100
▁kusini 100
tsoeng 100
▁ilanda 100
▁sebelisoa 100
▁linga 100
xabiso 100
▁Bodi 100
har 100
▁Inshita 100
▁créer 100
▁amaraso 100
▁mikalile 100
jonge 100
bigira 100
mie 100
ngoma 100
▁Korinto 100
▁zei 100
▁kumbure 100
▁ushindi 100
OS 100
▁boshobora 100
▁guess 100
▁engaba 100
▁kifo 100
▁Ubwo 100
pan 100
uta 100
ffe 100
▁platform 100
▁anderen 100
chithe 100
▁atendeke 100
▁weight 100
ller 100
▁1970 100
▁27: 100
▁motse 100
▁mke 100
▁laquelle 100
▁emanzini 100
▁traitement 100
▁ehamba 100
▁vyiwe 100
▁added 100
▁yeBhayibhile 100
▁iZwi 100
bane 100
ration 100
▁ekhulwini 100
▁balo 100
▁bagenzi 100
▁klant 100
▁trans 100
▁Have 100
uze 100
▁mokakatano 100
▁novembre 100
▁Matheu 100
53 100
▁uMdali 100
▁concernant 100
▁jouer 100
▁Haki 100
▁ingozi 100
▁ervoor 100
qinisa 100
iya 100
tima 100
pokea 100
▁personnel 100
▁expect 100
utu 100
ngaphambili 100
▁esengelaki 100
▁inzu 100
ight 100
▁umukashi 100
▁rahisi 100
▁Motho 100
▁boprofeta 100
▁completely 100
▁DAR 100
bazali 100
▁agenda 100
▁basakoli 100
sumina 100
▁kushirikiana 100
▁zoeken 100
▁Red 100
▁Zulu 100
▁Verder 100
▁opportunity 100
cili 100
▁semaines 100
▁parti 100
bit 100
▁bg 100
▁ukulacita 100
▁kuboresha 100
▁Ezalaki 100
▁Carbon 100
▁late 100
▁limbi 100
filwa 100
▁turiko 100
▁kugaragaza 100
▁izimiso 100
▁́ 100
izekeliso 100
gel 100
eba 100
▁ukunga 100
ndla 100
▁guys 100
fakwa 100
▁RE 100
▁hoge 100
▁eyano 100
▁telele 100
47 100
▁Ad 100
jali 100
▁Indawo 100
▁ngokwa 100
mis 100
▁kwizera 100
▁yeyote 100
▁rwiwe 100
▁permis 100
▁kitabu 100
0,000 100
▁ngamnye 100
▁liye 100
▁likete 100
haba 100
gana 100
rinda 100
olenge 100
▁Port 100
▁markt 100
▁bikorwa 100
phula 100
pele 100
▁ekómaki 100
▁nyaka 100
▁sake 100
▁idini 100
▁bumwe 100
▁ukusa 100
▁eyo 100
▁krijg 100
▁ubushobozi 100
tama 100
▁beschikbaar 100
▁changes 100
▁race 100
▁chef 100
mnye 100
▁Jordan 100
heden 100
bombela 100
▁Testament 100
▁kuzirikana 100
01 100
▁Hivyo 100
gere 100
finyelele 100
tiki 100
nkosi 100
CE 100
tus 100
▁Novemba 100
vakashela 100
▁mede 100
thunyelwa 100
list 100
kiza 100
band 100
▁ebu 100
▁umulopa 100
▁blood 100
▁bedrijven 100
▁vry 100
▁rapidement 100
▁mdogo 100
▁ubusuma 100
▁Kila 100
pate 100
▁roman 100
▁ekómi 100
▁beslis 100
▁NO 100
ordre 100
▁individual 100
▁organisatie 100
uvre 100
▁dank 100
▁range 100
▁inkulumo 100
▁Market 100
pl 100
Genesise 100
▁option 100
▁ekwenzeni 100
▁kwelinye 100
▁mosuni 100
▁Motatoli 100
▁buteko 100
▁ngaloo 100
komen 100
▁thoe 100
▁principe 100
▁Oor 100
kileyo 100
▁ofe 100
▁likaJehova 100
▁Ngiya 100
▁soka 100
▁speak 100
99 100
gqi 100
▁pakeng 100
unda 100
pula 100
khwe 100
vé 100
▁ukususela 100
ramu 100
▁kali 100
▁tree 100
▁damu 100
rf 100
-7 100
▁summer 100
▁engqondweni 100
lahlekelwa 100
▁skin 100
▁uluse 100
▁African 100
▁isahluko 100
phepha 100
▁isinqumo 100
buke 100
kuli 100
▁geworden 100
leba 100
▁suku 100
▁okwe 100
▁cibe 100
▁Magazeti 100
bongo 100
▁halen 100
▁Miaka 100
▁Yavuze 100
▁Basi 100
▁concerne 100
babaza 100
aha 100
set 100
▁verhouding 100
▁qoba 100
▁hlakileng 100
mazwe 100
▁pop 100
▁tukaba 100
entreprise 100
▁kolimbola 100
▁Christian 100
dor 100
▁Land 100
▁emithathu 100
▁sé 100
▁vreemde 100
▁eziphilayo 100
bila 100
▁Iran 100
▁urupfu 100
▁laisse 100
▁Omnye 100
lay 100
▁ekupheleni 100
kanya 100
▁Hivi 100
▁carte 100
kubali 100
▁ukuthanda 100
▁Teng 100
▁57 100
▁original 100
▁2) 100
▁elide 100
▁Sekunjalo 100
banjwa 100
▁buuku 100
▁gikomeye 100
▁Vader 100
▁ngizo 100
▁Report 100
ces 100
▁kamva 100
boni 100
maJuda 100
bla 100
occasion 100
▁abakurambere 100
euse 100
▁taya 100
shiwe 100
▁hande 100
▁isidingo 100
kufuna 100
▁32. 100
▁bwaba 100
▁kosambela 100
▁61 100
yika 100
▁spend 100
▁msimu 100
▁februari 100
▁rugero 100
ël 100
▁myinshi 100
▁Kaseebanya 100
moi 100
▁bwali 100
▁babomfi 100
▁jezelf 100
TV 100
▁moeilijk 100
39 100
kke 100
▁Hore 100
▁store 100
▁tellement 100
Thimothewu 100
▁daarin 100
▁awo 100
▁save 100
▁Was 100
rate 100
▁klik 100
▁straat 100
▁kangangokuthi 100
▁Khumbula 100
▁blijkt 100
▁shirika 100
▁juhudi 100
▁vaste 100
▁abanakashi 100
▁card 100
▁naast 100
entre 100
▁Soos 100
▁North 100
▁58 100
▁esalaka 100
▁mthetho 100
▁garde 100
▁kwitwararika 100
intumwa 100
▁Taba 100
▁security 100
FA 100
▁(4) 100
mber 100
▁secret 100
bank 100
KAPO 100
▁ngokucacile 100
sambilisha 100
▁ikindi 100
▁liphoofolo 100
▁Ngokushesha 100
▁Jakaya 100
can 100
▁genade 100
ds 100
▁yambi 100
▁terms 100
tanda 100
▁ubuso 100
▁wazo 100
sur 100
▁bumba 100
▁YE 100
▁gegeven 100
▁amaxesha 100
▁1960 100
buki 100
nakekela 100
sonto 100
▁vent 100
▁historia 100
▁dezelfde 100
qhele 100
hitamwo 100
▁mention 100
remesha 100
▁ziri 100
▁sheba 100
▁Pennsylvania 100
▁algemeen 100
▁batata 100
mukele 100
▁ndalama 100
▁umweo 100
▁rester 100
▁wabona 100
▁busa 100
garuka 100
kujabulela 100
▁umbuzo 100
▁Make 100
▁kusambilisha 100
▁iyiphi 100
▁puso 100
▁sifuna 100
▁bure 100
▁Bra 100
▁contraire 100
2) 100
▁kuhlala 100
▁BISO 100
1) 100
▁kusoma 100
▁kutafuta 100
▁beginnen 100
bhalela 100
▁Profesa 100
▁kahoo 100
▁Ukuphila 100
▁ubwenge 100
▁Misala 100
information 100
▁Biso 100
futa 100
kayo 100
deur 100
▁phetha 100
ities 100
▁Book 100
Jehova 100
nch 100
▁Nyerere 100
▁policy 100
▁voit 100
▁mzuri 100
▁atemwa 100
▁cases 100
▁unyana 100
kise 100
▁én 100
zame 100
uba 100
▁welkom 100
▁entendu 100
▁wouldn 100
près 100
▁retrouver 100
▁Watchtower 100
▁kari 100
▁receive 100
▁fou 100
▁vyabo 100
▁septembre 100
▁mkataba 100
▁Bajuda 100
▁wateja 100
▁urupapuro 100
▁moloko 100
▁ugonjwa 100
▁BE 100
▁inkondo 100
merk 100
ziva 100
▁kokutana 100
ukuba 100
kushoto 100
chten 100
ld 100
▁utawala 100
▁genoem 100
▁asalelaki 100
xesha 100
▁Kule 100
ngakwazi 100
▁puisse 100
▁knowledge 100
▁viwanja 100
▁confiance 100
▁Obama 100
▁ukudlala 100
▁72 100
▁magari 100
▁baki 100
▁mwenu 100
zotuma 100
▁lokileng 100
▁kasesema 100
▁Abe 100
▁rurimi 100
▁64 100
sser 100
▁imizi 100
▁hoef 100
▁balobaka 100
jonga 100
▁katikati 100
▁umphakathi 100
▁800 100
▁IsAmbulo 100
rika 100
▁Bayisalaele 100
▁umuyayaya 100
▁kreeg 100
▁easily 100
▁ontwikkel 100
▁student 100
onekana 100
rage 100
▁delen 100
▁technology 100
▁akokaki 100
ttes 100
▁Kabumba 100
▁break 100
▁watch 100
▁Tam 100
▁kiti 100
▁Sasa 100
▁indima 100
▁couldn 100
▁elkeen 100
▁record 100
▁Ndandi 100
▁ngonga 100
▁zona 100
onyesha 100
▁choose 100
▁felt 100
▁1989 100
▁rugabo 100
▁heshima 100
▁musique 100
▁internationale 100
▁imini 100
▁bamwe 100
▁ezise 100
hambe 100
▁saison 100
mva 100
:“ 100
njabulo 100
▁oil 100
▁moest 100
shinda 100
tatu 100
▁1999 100
▁zenye 100
▁boemong 100
belenga 100
▁Idara 100
▁uwe 100
Ra 100
▁utaratibu 100
pangwa 100
▁meestal 100
▁zomhlaba 100
▁kubu 100
uza 100
nny 100
lag 100
▁kupunguza 100
▁nasi 100
▁baca 100
liswa 100
04 100
▁vet 100
▁00 100
▁01 100
▁gukunda 100
▁7] 100
amazi 100
▁amazi 100
▁Egupti 100
▁snaaks 100
dili 100
▁tuga 100
▁emibili 100
▁balanda 100
light 100
mnandi 100
▁Most 100
▁upendo 100
tin 100
bhapathizwa 100
▁Center 100
▁aider 100
▁kopona 100
nqulo 100
▁Daniel 100
▁zalo 100
▁Mkoani 100
▁amper 100
bikako 100
▁1992 100
▁Naam 100
▁ubumwe 100
▁indwi 100
gende 100
28 100
huye 100
▁chemin 100
▁publiek 100
buzwa 100
hinduye 100
▁bemera 100
bekwe 100
▁Angi 100
uzi 100
▁Alobaki 100
xhasa 100
▁esigcwele 100
▁received 100
▁ideas 100
vamile 100
▁ugusenga 100
▁raba 100
▁vuur 100
tholi 100
stad 100
lenge 100
▁mesures 100
▁kijiji 100
▁kosa 100
▁1997 100
lon 100
▁Tra 100
bri 100
▁ushirikiano 100
▁basha 100
▁imizwa 100
▁decided 100
▁according 100
▁Mh 100
▁lyali 100
▁standard 100
▁Frank 100
▁comments 100
▁options 100
▁bitari 100
thandwa 100
▁MPO 100
▁mora 100
▁impendulo 100
Bukumkani 100
lelanga 100
▁ndogo 100
▁Will 100
▁53 100
▁minister 100
▁28, 100
▁paper 100
giranira 100
▁port 100
▁Department 100
▁Mamlaka 100
▁Mohamed 100
▁bilioni 100
▁rhoqo 100
▁ruhande 100
▁maximum 100
EN 100
cus 100
▁problemen 100
▁Ikulu 100
▁leeftijd 100
▁nsuku 100
▁ezingaphezu 100
▁mawazo 100
▁hof 100
jw 100
form 100
▁korte 100
▁Ukwenza 100
log 100
rit 100
▁isicelo 100
eli 100
Lesa 100
▁box 100
▁baahi 100
▁yokwenza 100
▁mogelijkheden 100
suminisha 100
▁ngqo 100
▁litšoantšo 100
▁utekelezaji 100
▁rusengero 100
▁budahera 100
▁Kukhona 100
▁mashindano 100
lemoneka 100
▁Act 100
▁1919 100
melela 100
▁terecht 100
▁inaweza 100
▁spreek 100
▁yobuKristu 100
ganga 100
tagira 100
sambilile 100
Moya 100
▁Ndiya 100
sco 100
▁avril 100
▁uchunguzi 100
bhalwa 100
▁sehlooho 100
▁propos 100
ikigereranyo 100
6) 100
▁neno 100
▁Heel 100
▁beta 100
▁Christelike 100
▁watanzania 100
▁Meneja 100
▁gazeti 100
▁Akizungumza 100
span 100
▁banakashi 100
baleka 100
dadi 100
Ubu 100
▁Tozali 100
▁gesin 100
▁Kutoka 100
▁sezinto 100
▁episode 100
▁valeur 100
kenewe 100
tt 100
schap 100
▁akili 100
▁nesimo 100
▁nkashi 100
▁kijk 100
▁tye 100
▁kuthetha 100
idi 100
▁travel 100
▁ngalokhu 100
▁asali 100
▁images 100
tation 100
▁nyenyane 100
▁return 100
▁kushoto 100
▁kibanza 100
▁1945 100
dhi 100
lemba 100
▁mwaume 100
mari 100
dal 100
rudi 100
▁yagize 100
▁Zuma 100
▁comp 100
▁sibone 100
▁Septemba 100
▁Amerikaanse 100
tana 100
lwele 100
▁akiri 100
▁fela 100
Luka 100
ifi 100
▁Nde 100
lungiselelo 100
BE 100
▁makhetlo 100
▁matukio 100
eu 100
▁plans 100
landile 100
▁lichaam 100
DE 100
▁quickly 100
apos 100
gg 100
▁bio 100
▁viens 100
▁vat 100
▁bazoba 100
▁vision 100
▁entire 100
▁wakazi 100
▁performance 100
▁laag 100
▁efanele 100
▁techniques 100
▁bamalaika 100
▁cifungo 100
▁iikalamba 100
▁Kwenye 100
tar 100
▁soient 100
▁grands 100
▁utiliser 100
▁manne 100
▁IT 100
▁role 100
▁Juda 100
▁abagabo 100
bere 100
▁fire 100
kuthanda 100
keng 100
tinya 100
▁Emwe 100
gé 100
▁biraba 100
.”— 100
▁imoto 100
▁combat 100
▁ohle 100
52 100
▁Kale 100
▁voilà 100
▁gemakkelijk 100
▁balupwa 100
voer 100
IS 100
nxa 100
▁abene 100
▁Baya 100
▁interview 100
▁ve 100
▁round 100
▁okwenza 100
▁sinds 100
▁yesi 100
▁Mark 100
ongoza 100
▁ligi 100
Ons 100
▁abafuna 100
burg 100
ay 100
lulu 100
ezi 100
▁23, 100
hera 100
▁ukugcina 100
nger 100
▁butandukanye 100
▁tamu 100
▁Today 100
▁choisi 100
▁umubili 100
▁lolote 100
▁Stuur 100
▁lunch 100
thande 100
▁Chris 100
▁NNE 100
▁activités 100
▁athile 100
▁kudufasha 100
▁kusa 100
▁iciyumviro 100
▁Anne 100
▁uqobo 100
▁umwaka 100
▁nguNkulunkulu 100
▁celles 100
ngabantu 100
▁ilizwe 100
polo 100
▁periode 100
▁kaYesu 100
▁insurance 100
▁15] 100
dhani 100
▁connais 100
khulula 100
kulingana 100
▁click 100
▁logo 100
semhlabeni 100
▁personen 100
blad 100
▁Ukwo 100
▁sometimes 100
▁double 100
▁neemt 100
▁Love 100
shintshe 100
subira 100
gin 100
▁ukukhonza 100
▁Hayi 100
▁lenyalo 100
tan 100
▁Ayo 100
▁AS 100
▁lithuto 100
▁Kumele 100
▁afe 100
wele 100
▁rustig 100
ric 100
▁minyaka 100
▁asubuhi 100
▁Vijana 100
▁bandimi 100
fuata 100
▁ezibonakalayo 100
ngenxa 100
▁wabe 100
▁bedrag 100
sis 100
▁required 100
▁addition 100
kulia 100
tine 100
Het 100
▁1994 100
gebied 100
ngisiza 100
▁Louis 100
▁imibono 100
gaba 100
▁vyacu 100
druk 100
▁Bwa 100
▁giving 100
▁Gra 100
▁baciye 100
▁domaine 100
▁loka 100
▁kinini 100
gxile 100
talelaka 100
ira 100
bé 100
▁Timothea 100
▁Misiri 100
▁micro 100
▁Rwanda 100
ute 100
▁capable 100
mbala 100
▁fetola 100
ngakwenza 100
▁wu 100
▁kolakisa 100
▁hoekom 100
Yesu 100
▁menu 100
▁beroep 100
SO 100
▁People 100
▁Itanguriro 100
ɔ 100
sula 100
▁MWAKA 100
year 100
▁vote 100
▁sein 100
munara 100
▁CA 100
gereza 100
yanda 100
▁njengaba 100
▁Umuremyi 100
▁zone 100
▁ukubaluleka 100
▁relatie 100
▁donker 100
rai 100
▁vijf 100
▁Wananchi 100
▁lobɔkɔ 100
▁ujumla 100
▁eBhayibhileni 100
▁exactly 100
▁Samweli 100
APUR 100
phumela 100
kiloeng 100
▁ungathanda 100
▁filamu 100
▁release 100
▁nqaku 100
▁Njenge 100
▁kulia 100
▁Donc 100
▁geleentheid 100
▁mix 100
▁alecita 100
▁actions 100
▁cumi 100
NO 100
site 100
▁Vollenhove 100
▁tšoara 100
▁Mituna 100
▁takatso 100
ER 100
▁litomba 100
▁bwerekeye 100
ada 100
ongo 100
▁wens 100
▁Omkhulu 100
kaart 100
▁kwenziwe 100
▁umugwi 100
fundiswa 100
tief 100
wana 100
▁Sta 100
▁batle 100
▁Kyk 100
▁usa 100
▁fyakwe 100
yingozi 100
sithombe 100
ukw 100
bisi 100
▁différentes 100
▁06 100
▁réalité 100
▁nzete 100
Ivyakozwe 100
▁balelanda 100
▁perdu 100
meze 100
stra 100
▁Maji 100
▁guy 100
▁mahali 100
▁naheng 100
qiniseka 100
▁ibonisa 100
golide 100
cre 100
▁meza 100
▁financial 100
▁mond 100
▁suivi 100
▁kos 100
▁Asa 100
▁mhlawumbi 100
▁Hai 100
▁suivre 100
▁règlement 100
okapo 100
▁yana 100
▁boyekoli 100
▁kwenzeke 100
▁ezahlukeneyo 100
▁hla 100
▁finale 100
▁esihlokweni 100
seni 100
ayebisaki 100
▁Bre 100
▁kupiga 100
▁anaweza 100
▁amagara 100
keli 100
▁mabaka 100
sent 100
▁uriko 100
Google 100
▁kufwala 100
kashi 100
san 100
▁Januari 100
▁bemba 100
tique 100
NW 100
▁meilleur 100
kubo 100
▁Bonse 100
▁Speletjies 100
▁akitoa 100
shiwo 100
▁rij 100
▁ciGriki 100
▁amazinda 100
even 100
▁recently 100
▁qetellong 100
▁sebetsang 100
▁collection 100
▁prys 100
rent 100
▁1000 100
▁geluk 100
▁nezingane 100
Kaap 100
▁standaard 100
hileng 100
▁bafuna 100
▁izinceku 100
selula 100
school 100
▁bite 100
▁success 100
▁argument 100
lwala 100
▁happened 100
▁quick 100
▁shows 100
▁Onthou 100
▁maloa 100
▁ensuite 100
alo 100
▁Vya 100
▁betaling 100
▁Moet 100
▁wokuba 100
▁tuki 100
▁izandla 100
▁Tó 100
▁abazalwana 100
utilisation 100
▁Nina 100
▁zii 100
▁lorsqu 100
Go 100
▁uncedo 100
fake 100
▁mar 100
▁dossier 100
▁niba 100
▁Kamer 100
▁Masi 100
hatholike 100
▁Kiongozi 100
▁impossible 100
▁vrede 100
▁Algemene 100
sona 100
▁verwys 100
kale 100
▁Many 100
bantu 100
équipe 100
spel 100
▁multi 100
▁taille 100
▁kulokho 100
kaka 100
▁kamwe 100
▁hour 100
udi 100
▁ipo 100
▁uuli 100
py 100
▁ouer 100
▁persone 100
madoda 100
▁Futunot 100
▁Ulupungu 100
▁History 100
▁ngokuqondile 100
▁unoku 100
▁Mikanda 100
phakamisa 100
▁amwene 100
▁soveel 100
▁justice 100
▁serious 100
▁Gar 100
▁films 100
badala 100
▁impela 100
▁imfundo 100
▁bozwi 100
54 100
▁mikoa 100
meza 100
▁34: 100
▁natural 100
pin 100
▁enoba 100
▁waphansi 100
solo 100
▁itse 100
▁bakunda 100
dui 100
▁kutosha 100
▁forex 100
ongeza 100
▁umqondo 100
▁Haar 100
▁owe 100
▁Version 100
▁lipuo 100
▁tšoaneng 100
▁ste 100
▁verby 100
shobore 100
AT 100
ndaba 100
INA 100
▁accord 100
▁surprise 100
▁iningi 100
▁kuloo 100
▁avond 100
▁bofe 100
▁chambre 100
mthanda 100
naam 100
67 100
gie 100
vuna 100
rry 100
▁équipe 100
▁unieke 100
▁wawo 100
▁ifise 100
▁kuweza 100
ZO 100
▁URUP 100
▁Majaliwa 100
▁Namhlanje 100
▁emzimbeni 100
▁voix 100
▁ululimi 100
▁Kolose 100
onesha 100
▁bolɔkɔ 100
Pawulos 100
▁pé 100
▁sp 100
ganda 100
▁materiaal 100
▁Hotels 100
▁shaka 100
mvula 100
IP 100
phile 100
▁encane 100
▁umthwalo 100
▁ulimwengu 100
▁Mna 100
saidia 100
▁départ 100
▁texte 100
▁tafadhali 100
▁resultaat 100
▁alingaka 100
▁gushitsa 100
▁jammer 100
▁directement 100
▁dakika 100
ncinane 100
▁worked 100
▁customers 100
sasa 100
▁esifanele 100
▁verskil 100
▁Europese 100
fungua 100
..." 100
dan 100
▁reden 100
▁yule 100
▁drive 100
rera 100
▁nalabo 100
▁amabini 100
pala 100
pp 100
▁address 100
kuku 100
kosha 100
▁attend 100
▁politie 100
▁Kuwa 100
▁bericht 100
▁wajumbe 100
eert 100
▁text 100
▁sherehe 100
▁nombreuses 100
▁mosakoli 100
lei 100
▁conseils 100
ien 100
▁kuyoba 100
▁busuma 100
▁Kalinda 100
kabiliana 100
▁sayo 100
▁citungu 100
▁track 100
▁piece 100
▁iindawo 100
3) 100
▁balingaka 100
vumele 100
sezulwini 100
▁phe 100
box 100
▁indwara 100
▁bakaJehova 100
nako 100
ndwa 100
▁Maisha 100
▁emzini 100
▁dusanga 100
▁vitendo 100
▁Lonke 100
▁bikomeye 100
▁ubulwele 100
▁Bonisa 100
▁zokuphila 100
▁amaJuda 100
bomi 100
▁bohata 100
▁2017. 100
cer 100
▁dola 100
nyaniso 100
samaki 100
▁urubanza 100
▁ngombwa 100
tunganye 100
▁elilodwa 100
▁Biashara 100
▁opnieuw 100
ishile 100
thembekile 100
▁unina 100
bukeka 100
▁lots 100
wege 100
▁imekuwa 100
▁Sien 100
▁abati 100
▁genieten 100
heba 100
video 100
sikia 100
Da 100
▁afwa 100
▁ukaba 100
▁ware 100
▁career 100
▁pelaelo 100
▁viwanda 100
▁kungekho 100
▁color 100
▁sohle 100
▁kangako 100
▁bolelang 100
▁Chadema 100
▁visa 100
▁kwamanzi 100
▁Twee 100
▁Mohlomong 100
khokelela 100
zibona 100
gang 100
▁ensure 100
▁intliziyo 100
▁sale 100
▁nokufa 100
▁ndo 100
dien 100
▁aanlyn 100
kelela 100
njengo 100
▁Efa 100
landisa 100
jabule 100
▁Mbega 100
▁ekokaki 100
shisa 100
▁kwakunye 100
lesha 100
▁dient 100
▁houdt 100
▁inside 100
hawe 100
▁asseblief 100
▁mitandao 100
▁cibusa 100
▁acita 100
▁General 100
▁Nali 100
ook 100
59 100
▁tubona 100
▁Vol 100
mkhosi 100
58 100
Di 100
mnyama 100
▁beskou 100
▁wijze 100
yona 100
rimwo 100
▁mitinda 100
▁udumo 100
▁éléments 100
UN 100
sebenzise 100
▁papitile 100
▁tlhokomelo 100
▁kitaifa 100
▁Ngubani 100
▁iingxaki 100
renga 100
dai 100
melene 100
citse 100
tokea 100
▁political 100
hindura 100
misebenzi 100
▁voorkomen 100
▁stof 100
nom 100
▁reactie 100
▁chuo 100
▁Lwa 100
▁Yelusaleme 100
▁Yisraele 100
▁MAKAMBO 100
▁Lilemo 100
▁zevangeli 100
misha 100
nke 100
▁effort 100
tage 100
mehlo 100
▁cili 100
▁fini 100
▁akufanele 100
phakade 100
shingiye 100
ngafuni 100
▁Nigeria 100
ateur 100
ront 100
bhekwa 100
▁rea 100
▁Real 100
▁bika 100
▁pono 100
▁natuurlik 100
77 100
▁haku 100
▁séjour 100
lly 100
▁MTAA 100
ubwo 100
▁planning 100
▁makini 100
ngaka 100
kuphi 100
table 100
▁ngani 100
▁uMa 100
mvelo 100
▁nokuphila 100
rc 100
EL 100
izina 100
▁disposition 100
▁legal 100
▁Tuna 100
Isaya 100
lipa 100
57 100
▁keng 100
▁umwete 100
ingorane 100
Umwana 100
▁uhulumeni 100
▁German 100
▁efuna 100
zise 100
mnikelo 100
ntambo 100
emploi 100
▁augustus 100
▁sulke 100
▁ajira 100
siba 100
ebele 100
▁kutaka 100
▁picture 100
▁ukushimikila 100
▁zine 100
▁pembeni 100
▁kangcono 100
rons 100
dibana 100
▁bel 100
▁Kuye 100
rwanya 100
▁yerekeye 100
46 100
▁makabo 100
▁straf 100
▁libuka 100
▁patient 100
sto 100
▁ukusiza 100
▁awamu 100
zenze 100
zalaka 100
▁basambi 100
misela 100
▁dienst 100
56 100
▁alone 100
▁barashobora 100
kari 100
▁Mari 100
▁pɛtɛɛ 100
▁hafla 100
▁plasing 100
▁Ubumwe 100
simiso 100
▁jouself 100
▁hlahloba 100
▁kopana 100
▁status 100
▁mocha 100
▁runtu 100
▁Johannes 100
gcizelela 100
100 100
▁berg 100
hede 100
▁isinyathelo 100
besifazane 100
Co 100
▁isn 100
▁Liboso 100
▁besoins 100
▁lecture 100
sit 100
▁ukucabanga 100
▁European 100
▁passage 100
▁Ed 100
▁sebetsana 100
uri 100
▁juis 100
▁commercial 100
ën 100
89 100
rol 100
▁Em 100
▁Journal 100
▁%% 100
▁moyens 100
ix 100
▁format 100
▁mapato 100
▁gehouden 100
▁Veel 100
▁libondeli 100
gesi 100
citabo 100
mhla 100
▁française 100
▁ground 100
sekele 100
▁reeks 100
▁ag 100
▁British 100
▁leden 100
▁discussion 100
▁cover 100
▁voet 100
▁lam 100
zweni 100
park 100
▁oomblik 100
phansi 100
part 100
▁Juni 100
fundi 100
mntu 100
▁bwikashi 100
▁military 100
▁botɔndi 100
umi 100
Ndodana 100
▁involved 100
▁mikumba 100
upa 100
vier 100
lecita 100
▁uphawu 100
▁FA 100
▁Hana 100
sinye 100
▁station 100
feza 100
mya 100
▁nemi 100
▁Wishi 100
sole 100
▁imbabazi 100
nso 100
▁loved 100
▁Unis 100
▁East 100
▁intege 100
gene 100
▁nalowo 100
▁itanga 100
Jesu 100
▁kokɔta 100
los 100
▁fruit 100
▁percent 100
% 100
▁NGO 100
▁slot 100
▁uhusiano 100
▁soleil 100
▁libokeng 100
86 100
▁kleuren 100
▁14; 100
▁allow 100
▁1980 100
yaga 100
▁imfumu 100
uren 100
▁walimu 100
dalwa 100
▁onderwerp 100
▁treatment 100
▁naso 100
▁tšepahala 100
mbali 100
▁wasezulwini 100
▁AM 100
▁spot 100
▁sortir 100
▁ikibi 100
▁bacitile 100
zinga 100
tif 100
▁screen 100
▁gito 100
▁mawasiliano 100
▁uliofanyika 100
▁mobongisi 100
▁Depuis 100
maRoma 100
▁khutlela 100
▁ngenjongo 100
# 100
▁Club 100
▁bibazo 100
nqa 100
▁lives 100
phendule 100
▁banabo 100
▁kumuntu 100
lant 100
husisha 100
gwe 100
▁adres 100
▁hospital 100
dashobora 100
▁isihloko 100
luleka 100
▁ondersteuning 100
▁bedoel 100
▁fika 100
▁WordPress 100
kuvumela 100
kutanaki 100
▁ukutholakala 100
▁vyote 100
Ju 100
▁plupart 100
▁biva 100
▁okufanayo 100
▁noko 100
kiwa 100
▁akana 100
▁yilapho 100
▁cesu 100
▁mafunde 100
▁geweldig 100
▁keuken 100
▁hoogste 100
▁pourtant 100
▁Cour 100
▁Qond 100
▁isazi 100
▁uSathana 100
imba 100
▁umthombo 100
shisha 100
▁coeur 100
▁isubilo 100
▁vituo 100
fela 100
▁boko 100
▁Android 100
▁Pele 100
sondele 100
▁ebandaki 100
▁bezoek 100
▁Icabona 100
▁ifunde 100
▁yaani 100
▁Yena 100
▁ange 100
lobi 100
▁Abaheburayo 100
▁Mozalisi 100
▁bupainiya 100
▁moklisto 100
▁nogal 100
▁Ndugu 100
TH 100
▁limemya 100
▁bulwele 100
▁betalen 100
langile 100
▁Kwanza 100
bati 100
▁alama 100
▁zezi 100
▁amakosa 100
▁Baka 100
▁kujiunga 100
tsheni 100
▁mbila 100
▁kolongola 100
▁fuoa 100
▁ing 100
▁mahlo 100
▁ailleurs 100
▁moeilik 100
origine 100
▁pose 100
▁ziyo 100
▁Universiteit 100
▁etamboli 100
▁Unaweza 100
68 100
sikisela 100
▁woorden 100
▁choisir 100
▁yamo 100
▁vlees 100
dele 100
▁Click 100
▁emphakathini 100
▁Johannesburg 100
ukwo 100
▁Kim 100
▁plaaslike 100
▁Frans 100
▁gatoyi 100
▁oluthile 100
▁bomoko 100
▁yee 100
▁kulanga 100
▁ubumenyi 100
▁aard 100
▁Njalo 100
▁science 100
▁CE 100
▁angama 100
▁abangama 100
ology 100
▁kulula 100
▁eminye 100
mfundiso 100
▁Ngai 100
▁wazazi 100
▁mibu 100
▁igira 100
▁Hali 100
Nzambe 100
▁bázala 100
ndoda 100
▁rust 100
▁Association 100
▁faites 100
▁ntša 100
▁Kaskazini 100
▁Yeremia 100
▁activities 100
▁ciHebere 100
▁phatlalatsa 100
▁ndimbola 100
sport 100
endeleza 100
▁balobaki 100
▁safe 100
▁kalata 100
88 100
▁calici 100
▁cell 100
▁feu 100
▁itself 100
▁mwinga 100
linge 100
▁inshiku 100
issant 100
▁vente 100
▁VAN 100
If 100
▁yabona 100
▁proses 100
sp 100
▁zari 100
ub 100
▁kuelekea 100
lungileyo 100
▁dead 100
▁Amanye 100
▁commande 100
▁ayikho 100
lelwe 100
zer 100
▁yaravuze 100
▁lenye 100
76 100
▁zita 100
tle 100
▁kho 100
cker 100
kunde 100
▁bureau 100
Du 100
▁nzembo 100
▁mabondeli 100
▁kubandanya 100
▁icintu 100
▁abazalwane 100
goye 100
gte 100
filosofi 100
pping 100
▁Water 100
▁nkondo 100
ables 100
▁maboko 100
▁suit 100
▁ezincane 100
▁college 100
▁active 100
▁rencontre 100
rm 100
▁Aye 100
▁zithi 100
ngali 100
▁eyona 100
▁dés 100
▁ogen 100
sango 100
▁répond 100
▁naphezu 100
gora 100
▁Kata 100
▁kiuchumi 100
▁third 100
▁phaella 100
▁zulunalo 100
nyatheliswa 100
uka 100
▁1) 100
▁okokuqala 100
sale 100
▁oordeel 100
▁Niba 100
▁hose 100
▁lobuKristu 100
tata 100
kum 100
▁Ekuqaleni 100
▁umphefumulo 100
ions 100
mbeni 100
▁vyabaye 100
▁IV 100
▁nomoya 100
zithunywa 100
ukwi 100
▁zizo 100
▁63 100
▁fyebo 100
mat 100
kukhanya 100
▁kiba 100
▁murimo 100
▁inkqubo 100
▁Papa 100
▁000. 100
▁Ndani 100
▁vrae 100
pira 100
▁Tura 100
▁nokinoki 100
▁icupo 100
▁ngokweqile 100
khangela 100
▁faida 100
▁ulinzi 100
▁kuraba 100
▁imvugo 100
▁qetela 100
▁bimeze 100
ngakaze 100
cala 100
▁européenne 100
▁entreprise 100
▁groen 100
85 100
heng 100
▁reclame 100
▁riri 100
▁relevant 100
▁Simon 100
▁walo 100
03 100
▁akufaki 100
thandazela 100
▁sebete 100
lli 100
▁Aprili 100
more 100
▁Rom 100
▁(3 100
▁izifo 100
▁volgen 100
▁seli 100
▁abagore 100
▁entsoeng 100
▁kirekire 100
▁necessary 100
▁Kajeno 100
▁kwangu 100
▁Cup 100
▁woFakazi 100
▁amaSirayeli 100
▁Adam 100
gh 100
▁amahora 100
▁Deur 100
geven 100
thobela 100
▁Nkako 100
mithi 100
uwu 100
bandakanya 100
▁avaient 100
▁Sch 100
▁Esika 100
hal 100
▁activiteiten 100
▁Ehlabathini 100
▁khothalletsa 100
ability 100
banza 100
▁MAGUFULI 100
▁finally 100
▁yeBhayibheli 100
cé 100
hlezi 100
▁increase 100
▁Time 100
▁nieuws 100
▁inyifato 100
▁star 100
▁tekst 100
reg 100
▁Service 100
▁hlahisa 100
▁White 100
▁eJerusalema 100
lawulwa 100
▁fonds 100
▁kolonga 100
mpilo 100
yilapho 100
▁boom 100
mfu 100
ngabe 100
▁events 100
▁gehou 100
qinisekile 100
▁nayiphi 100
▁Brooklyn 100
▁uzinduzi 100
▁hlollang 100
▁score 100
▁hasi 100
▁Mariya 100
▁maswali 100
nkulunkulu 100
▁Esita 100
▁walk 100
▁commencer 100
▁wedstrijd 100
zokwenza 100
▁ok 100
naar 100
▁bapesaki 100
▁Wakhe 100
▁Ji 100
!!!! 100
▁Lee 100
zisebenzi 100
gogo 100
▁ezivela 100
sme 100
twala 100
temenwe 100
65 100
▁esandleni 100
▁Akabokoshi 100
gcwalisa 100
▁1940 100
▁Ngalo 100
pé 100
▁yalanda 100
▁baja 100
▁bewys 100
bomvu 100
▁filanga 100
riza 100
▁ak 100
▁iedere 100
iloeng 100
shigikira 100
ata 100
▁LO 100
44 100
▁meko 100
▁nime 100
▁simo 100
peelwa 100
▁penser 100
kuza 100
▁sauti 100
tta 100
▁hoeveel 100
▁ciyumviro 100
▁Kaapstad 100
▁gusubira 100
accès 100
▁Mōpi 100
▁mobembo 100
▁twara 100
Fi 100
▁verwag 100
▁mobeko 100
▁yanyu 100
gumye 100
phenduka 100
▁abandaki 100
▁Rose 100
▁mefuta 100
waka 100
maar 100
▁andimaki 100
▁makosa 100
▁ukungena 100
▁lubembu 100
▁kwako 100
▁Phaphama 100
▁95 100
▁omgewing 100
▁babeli 100
▁Intsha 100
▁1996 100
ets 100
▁natu 100
bale 100
▁rôle 100
▁Daarnaast 100
iherezo 100
isengesho 100
▁betekent 100
▁gupfa 100
vunyelwe 100
▁field 100
79 100
▁advies 100
▁apeele 100
▁CHADEMA 100
PS 100
▁former 100
▁rugo 100
shikiriza 100
▁sun 100
▁seuns 100
▁62 100
▁Code 100
fani 100
▁Julie 100
▁144 100
▁ibihumbi 100
kuthi 100
She 100
mais 100
▁ayokaki 100
▁kwee 100
voir 100
▁provides 100
buyele 100
▁ururimi 100
▁trouble 100
melo 100
▁umbhalo 100
▁permettre 100
▁privacy 100
▁umdla 100
boniswa 100
▁wathola 100
▁kuwepo 100
▁huge 100
▁reaksie 100
II 100
▁Wena 100
takiwa 100
▁offers 100
▁bamayo 100
Etat 100
▁Iyi 100
▁immers 100
sebenzela 100
▁ukulunga 100
▁bampate 100
nisha 100
kia 100
Su 100
▁kanisa 100
enfant 100
▁kutekeleza 100
kaana 100
▁gevra 100
▁Agosti 100
▁Kaimu 100
lafwaya 100
▁cuisine 100
citika 100
msulwa 100
hala 100
And 100
kurikiza 100
▁lulimi 100
▁Jerusalem 100
▁Los 100
stelsel 100
▁octobre 100
▁PS 100
▁environment 100
▁Commons 100
som 100
page 100
staande 100
▁etondi 100
▁YEHOVA 100
▁diensten 100
▁stond 100
▁umuzi 100
ches 100
lahle 100
mfazi 100
▁Naye 100
▁éviter 100
tuin 100
▁Waba 100
▁ingqalelo 100
▁ababi 100
laya 100
▁kita 100
▁Liketso 100
khathalela 100
▁1988 100
dondora 100
▁9] 100
▁décidé 100
▁izin 100
▁okuphakade 100
▁ukulongana 100
▁Dié 100
▁kuangalia 100
▁nakoana 100
▁ngcono 100
VU 100
ppe 100
▁ones 100
▁durée 100
▁olwa 100
▁mafu 100
▁gedrag 100
▁quelle 100
▁nomuntu 100
▁urashobora 100
ras 100
▁26] 100
▁kruis 100
▁Dé 100
▁intumbero 100
▁Onke 100
▁voer 100
manje 100
▁akusho 100
▁obala 100
▁nobu 100
▁fees 100
▁bwanje 100
mhlangano 100
▁countries 100
▁various 100
▁reçu 100
▁bajeti 100
▁bonsomi 100
vikela 100
▁Jacob 100
▁tans 100
tshelwa 100
8) 100
▁opinion 100
▁ibifungurwa 100
▁nokholo 100
▁wasio 100
ification 100
▁maan 100
nikeze 100
▁pha 100
▁rechts 100
▁agahimbare 100
▁sala 100
▁Nuwe 100
▁umubiri 100
▁ubungqina 100
▁akongera 100
▁arabela 100
▁waqhubeka 100
mwafwa 100
▁taka 100
▁AbaHebere 100
▁distance 100
▁subilo 100
▁emangalisayo 100
▁environ 100
ulo 100
▁fer 100
▁vo 100
▁waliokuwa 100
kane 100
▁haal 100
▁Pamoja 100
▁Tijden 100
izi 100
▁kabusha 100
▁beza 100
▁katiba 100
▁began 100
senokuba 100
pokelele 100
intu 100
sien 100
lane 100
▁bamunyina 100
▁trots 100
▁Moko 100
▁nhlobo 100
▁bwawe 100
-8 100
lid 100
▁Litšoantšo 100
▁babantu 100
▁masangá 100
▁yame 100
sanze 100
▁Mali 100
▁kubila 100
▁mahitaji 100
Kh 100
PE 100
▁unqulo 100
sono 100
zuze 100
theni 100
cisha 100
▁amategeko 100
kisha 100
▁1950 100
▁thusang 100
plaats 100
▁Bones 100
▁husika 100
▁prêt 100
▁madai 100
▁cadeau 100
ō 100
▁nahane 100
▁gesig 100
rra 100
▁rafiki 100
ache 100
lawo 100
▁map 100
hy 100
koko 100
▁bisaba 100
▁wrote 100
▁furaha 100
breek 100
▁impapulo 100
▁trouwde 100
▁bikenewe 100
▁kufanyika 100
▁soutien 100
▁naha 100
▁udu 100
khiphe 100
▁luse 100
▁talima 100
▁mé 100
▁related 100
▁bakaThixo 100
▁Machi 100
stelling 100
▁2016. 100
▁Maze 100
▁practice 100
▁approach 100
▁ingaruka 100
▁4; 100
▁act 100
▁Nie 100
hl 100
▁popular 100
▁ifyuma 100
▁empeleni 100
ther 100
▁iphepha 100
▁kucheza 100
5) 100
here 100
▁meteen 100
ski 100
▁Abafyashi 100
▁Diamond 100
▁Zunz 100
pona 100
▁ngawe 100
bal 100
▁watter 100
arrive 100
geni 100
▁tokelo 100
rr 100
nous 100
▁gets 100
nic 100
▁ukwisa 100
shele 100
▁libili 100
▁thato 100
▁imp 100
▁verduidelik 100
▁Oktoba 100
▁egameni 100
▁terrain 100
▁hlola 100
▁mapamboli 100
▁lizwe 100
▁bishingiye 100
lip 100
▁Jakobo 100
▁Nations 100
fumanisa 100
▁yokuziphatha 100
▁yipfuza 100
▁jonge 100
▁akamaro 100
zixhobo 100
khishwa 100
▁Madrid 100
▁Vo 100
▁hlile 100
▁sekolo 100
gunya 100
▁ski 100
▁imithi 100
buKristu 100
63 100
▁kabanzi 100
▁poor 100
▁embi 100
kini 100
▁cawama 100
thathwa 100
▁imiBhalo 100
letse 100
▁oli 100
▁Inyum 100
plek 100
▁vergeet 100
hinduka 100
qha 100
▁komituna 100
▁Tosengel 100
sayi 100
leg 100
▁datum 100
▁ngasinye 100
▁fear 100
▁stock 100
▁Gal 100
▁Una 100
▁sekere 100
▁user 100
ZE 100
▁azala 100
nemen 100
▁ukulwa 100
▁kushindwa 100
▁Aki 100
▁nesikhathi 100
Mdali 100
▁chochote 100
▁emoyeni 100
▁pɔsɔ 100
▁gevonden 100
▁tharo 100
ê 100
▁bigoye 100
▁ngezindlela 100
▁Ngayo 100
laag 100
▁Ufaransa 100
ssie 100
▁ngothando 100
zizwe 100
▁Matokeo 100
▁Shule 100
▁Bitcoin 100
▁Bandeko 100
▁kungekhona 100
▁izidingo 100
▁grave 100
▁tax 100
phumelele 100
mfazwe 100
▁Vyo 100
lokho 100
▁Hou 100
84 100
▁tšepa 100
▁publique 100
kope 100
ruimte 100
ndile 100
tain 100
▁Spain 100
zing 100
▁namanye 100
work 100
ntloko 100
sigura 100
▁bolele 100
▁lande 100
rha 100
▁icitabo 100
▁présence 100
▁pɛto 100
▁deuxième 100
▁Read 100
▁mirongo 100
▁Zaidi 100
▁courage 100
gwi 100
pewa 100
▁spent 100
fatiye 100
rug 100
▁zibiri 100
CA 100
▁douche 100
▁skrywer 100
94 100
▁amabanga 100
mel 100
pela 100
abi 100
▁ifinga 100
My 100
subiri 100
▁KE 100
▁kupambana 100
▁Air 100
▁lag 100
▁wild 100
vuza 100
▁res 100
sluit 100
▁Loo 100
▁mahakama 100
doen 100
▁tala 100
ndwe 100
▁résultat 100
▁Bazali 100
▁Francis 100
▁dukora 100
▁geweldige 100
▁lipelo 100
bhubhisa 100
▁geschreven 100
▁Sun 100
ratuma 100
▁commerce 100
Hu 100
hlangene 100
▁bois 100
▁livres 100
▁okungenani 100
▁documents 100
▁uhambo 100
92 100
linye 100
▁habo 100
Ne 100
ushi 100
▁esalaki 100
▁pragtige 100
oe 100
▁aha 100
bufakazi 100
51 100
▁bama 100
▁hlakile 100
▁Limo 100
▁global 100
ala 100
liko 100
▁uxolo 100
lling 100
▁nzo 100
▁skills 100
vent 100
▁ukhona 100
ward 100
▁Gedagte 100
▁pouvait 100
▁travaux 100
▁WhatsApp 100
▁quatre 100
▁gedeelte 100
rejea 100
tswe 100
cindika 100
▁werklik 100
ngá 100
▁hiervan 100
▁biga 100
▁pen 100
▁programu 100
▁askari 100
▁mari 100
▁INdumiso 100
▁Edene 100
gar 100
▁Foto 100
▁SI 100
limo 100
▁akwete 100
TS 100
lini 100
aki 100
▁réussi 100
▁prijzen 100
▁aand 100
fumya 100
▁wilayani 100
AARIFA 100
▁Mpango 100
▁enigste 100
▁Amafoto 100
ipa 100
kugcina 100
▁ngonaphakade 100
▁lokuphila 100
rio 100
mit 100
bouw 100
kwenze 100
haha 100
hele 100
▁efanelekileyo 100
ratibu 100
▁kunywa 100
bako 100
▁ebonisa 100
nela 100
sisi 100
Roma 100
▁bwine 100
house 100
▁état 100
leiding 100
jejwe 100
yaqhubeka 100
▁ikhasi 100
▁dak 100
▁10; 100
thonya 100
▁potential 100
▁iNdodana 100
wekwa 100
kubonisa 100
ziwe 100
▁Jumuiya 100
▁faragha 100
▁zabukuru 100
▁bantoma 100
▁Pourquoi 100
▁ngokuphathelele 100
▁Kw 100
▁kokubili 100
kan 100
▁ingxelo 100
▁totale 100
▁lucht 100
▁glas 100
▁ukuphela 100
accueil 100
impression 100
▁Mimi 100
senyameni 100
▁gezellig 100
qotho 100
xelela 100
▁verantwoordelik 100
▁kwiminyaka 100
▁Zuid 100
▁kakubi 100
all 100
ius 100
▁PC 100
▁Hangata 100
▁slecht 100
▁weqiniso 100
ISI 100
▁Radio 100
▁bron 100
iko 100
fuatilia 100
shayela 100
▁Mal 100
▁skoon 100
▁abahlala 100
IA 100
hathanisa 100
▁Inter 100
▁combinatie 100
▁34. 100
stre 100
▁sol 100
▁volledige 100
▁binêre 100
▁privé 100
▁bindi 100
▁toyebi 100
▁Hapa 100
▁hout 100
patikana 100
▁32: 100
▁travailler 100
zinkanyezi 100
lwela 100
▁cher 100
tunga 100
lili 100
▁Fo 100
école 100
cm 100
▁nothando 100
▁ezangi 100
tuur 100
▁plu 100
▁Kunokuba 100
kuhle 100
tuka 100
▁Iqiniso 100
▁clean 100
▁medewerkers 100
fiki 100
kamp 100
sansa 100
lyn 100
sakhiwo 100
▁Russell 100
▁3) 100
buyisela 100
▁régime 100
▁energy 100
phulaphula 100
▁toegevoegd 100
lekabila 100
▁gevind 100
▁gama 100
bato 100
▁daai 100
▁stelsel 100
▁notice 100
▁ekoya 100
▁cilya 100
mbwa 100
ram 100
bly 100
natakiwa 100
gweme 100
▁kwesu 100
lembelwe 100
▁bibiri 100
96 100
▁abakalamba 100
▁kurushiriza 100
▁uzazi 100
▁85 100
Zi 100
▁beskryf 100
spite 100
yeli 100
CO 100
▁digital 100
sabwa 100
▁masomo 100
ikindi 100
▁verre 100
muphi 100
▁probleme 100
mbuso 100
▁série 100
kuzi 100
yinyaniso 100
▁belangrike 100
▁volume 100
▁bafwa 100
▁kuzingatia 100
▁trade 100
▁Cu 100
▁kubala 100
▁isiZulu 100
▁accept 100
wusizo 100
hof 100
▁profit 100
▁Sho 100
inter 100
▁mamella 100
▁Julai 100
goro 100
▁kwihanganira 100
▁mazuri 100
▁malengo 100
▁Tom 100
▁umuhimu 100
▁fapana 100
▁5] 100
▁okumele 100
▁26, 100
ford 100
▁brain 100
▁divers 100
ool 100
reke 100
▁Ny 100
▁danger 100
▁Ukufunda 100
▁Apple 100
▁Ee 100
▁created 100
tekwa 100
▁esimweni 100
▁utafiti 100
▁izoba 100
▁playing 100
enjongo 100
▁dessus 100
▁thapelo 100
▁abase 100
basebenzi 100
kufunda 100
▁abathile 100
ibuka 100
▁offre 100
▁nolwazi 100
zithola 100
▁Street 100
▁nyimbo 100
▁Iringa 100
▁lom 100
▁hakae 100
▁wife 100
caca 100
▁makundi 100
▁batumwa 100
AD 100
▁muti 100
dokotela 100
▁kwexesha 100
tattoo 100
▁1930 100
kubeka 100
▁kook 100
▁Abantwana 100
▁Kapa 100
▁courant 100
▁Who 100
07 100
▁kobɛta 100
RY 100
▁10] 100
▁Phela 100
▁kindi 100
▁messages 100
▁ikibanza 100
▁eningi 100
kudla 100
▁wen 100
▁700 100
▁birimwo 100
GA 100
▁bolaea 100
▁phethahala 100
PI 100
4. 100
▁character 100
▁sihlale 100
▁noJehova 100
▁lequel 100
▁amaqiniso 100
▁neminyaka 100
isch 100
iri 100
shed 100
CC 100
▁kokoba 100
▁lumière 100
▁iewers 100
▁Umoya 100
▁makolo 100
▁histori 100
lever 100
ondoka 100
▁Hey 100
sikhungo 100
▁umukenyezi 100
lungama 100
beeld 100
▁perhaps 100
▁izinqumo 100
fahamu 100
▁asala 100
▁Bay 100
▁spring 100
▁lulang 100
room 100
WENYE 100
thwala 100
▁imifanekiso 100
qondisa 100
▁lug 100
▁kolekisa 100
▁concert 100
▁bongata 100
ngelo 100
▁choice 100
rata 100
avez 100
▁elinga 100
▁Quel 100
siseko 100
▁izixhobo 100
▁mwaliba 100
▁Petru 100
▁Mens 100
▁onlangs 100
▁umlando 100
▁Hospitali 100
particulièrement 100
▁Did 100
▁Gutyo 100
▁miwili 100
linganiselwa 100
rick 100
▁forces 100
▁Akekho 100
ngoku 100
▁Bó 100
▁bunge 100
▁ezinzima 100
mlilo 100
▁Bethel 100
▁feet 100
▁08 100
▁akayi 100
zidi 100
tunganya 100
Gu 100
▁understanding 100
▁road 100
▁Mongol 100
▁sireletsa 100
teya 100
▁aile 100
▁sifanele 100
▁kantoor 100
macala 100
▁UB 100
bhekane 100
▁orde 100
gqa 100
lingaki 100
lied 100
that 100
▁droom 100
▁kwase 100
▁bakozala 100
▁Henry 100
▁evidence 100
▁muputule 100
▁wizara 100
▁téléphone 100
▁medical 100
▁Yiziphi 100
▁economic 100
▁lukaNkulunkulu 100
▁centrum 100
▁Afisa 100
▁motuna 100
▁fosahetseng 100
▁Ubani 100
▁akomeye 100
silinganiso 100
▁vidéo 100
▁Den 100
rri 100
dufasha 100
What 100
kore 100
Hlola 100
▁klas 100
midlalo 100
▁(...) 100
baze 100
▁ondersteun 100
▁Social 100
▁girls 100
▁Col 100
JA 100
isse 100
malunga 100
boshwa 100
▁Bakolinti 100
▁Société 100
▁Church 100
▁derrière 100
▁voici 100
??? 100
▁mikano 100
▁Kijk 100
▁mbindo 100
▁faisait 100
sisiza 100
▁teenoor 100
tara 100
phikisana 100
▁Afrikaner 100
Bhayibhile 100
▁currently 100
andika 100
ngaphambi 100
▁libre 100
mbona 100
▁afdeling 100
▁bathole 100
▁material 100
▁provided 100
▁imeko 100
▁wishi 100
▁ukuteka 100
baza 100
▁izazi 100
▁kukaJehova 100
beli 100
wile 100
▁affect 100
▁uJohane 100
▁mkononi 100
KE 100
▁challenge 100
ië 100
▁lita 100
maxesha 100
▁Abatusuminishe 100
▁Segerike 100
▁mchakato 100
▁planeet 100
eeft 100
▁1986 100
▁bitandukanye 100
kabili 100
bak 100
▁gebruikers 100
▁felisa 100
▁ndelo 100
▁komɛla 100
miswa 100
▁relations 100
▁costs 100
▁bileng 100
▁Malaki 100
▁aren 100
khathini 100
▁yabipa 100
hwe 100
▁izingubo 100
▁Nti 100
▁baNte 100
▁Daarna 100
▁hawana 100
lifa 100
▁esidlule 100
sin 100
tyala 100
qondi 100
fundise 100
pm 100
shishi 100
Tiká 100
▁atindaki 100
siphi 100
lume 100
sola 100
shimikila 100
elwa 100
▁Mosɛnzɛli 100
▁toestemming 100
▁daughter 100
▁advice 100
▁poids 100
▁vyema 100
thula 100
▁intéressant 100
▁surface 100
▁fisuma 100
afwa 100
batizwa 100
▁hino 100
▁kokoma 100
mizwa 100
▁vul 100
mihla 100
▁Huduma 100
▁Hans 100
mshini 100
▁bathola 100
▁nomhlaba 100
ngawu 100
▁lia 100
▁Tous 100
▁zon 100
▁Nahana 100
▁Group 100
uro 100
▁uMthetho 100
CCM 100
zifundo 100
▁prevent 100
▁Danks 100
qeqesha 100
▁profiter 100
▁potlako 100
▁hirya 100
▁économique 100
▁akasuba 100
▁kinaka 100
shire 100
▁utloahalang 100
▁ukunze 100
stro 100
); 100
ngeli 100
▁Kuthiwani 100
ngile 100
khiwa 100
▁engcono 100
000 100
▁bubili 100
▁njengom 100
▁umuhungu 100
▁title 100
▁mubiri 100
Bó 100
▁interessant 100
gisha 100
83 100
nakho 100
seYurophu 100
cebile 100
▁hohle 100
▁iqela 100
▁ubunzima 100
200 100
▁higher 100
staat 100
▁awe 100
Ga 100
▁Sport 100
97 100
▁bientôt 100
▁ukube 100
vang 100
▁connu 100
▁Nimuze 100
▁eteni 100
▁palo 100
▁kisha 100
jaribu 100
▁Kombe 100
▁mongongo 100
▁Gileadi 100
▁motoba 100
▁zeBhayibhile 100
▁Egome 100
▁ingase 100
indi 100
Nda 100
AM 100
▁seizoen 100
▁isipho 100
▁HIV 100
08 100
▁yize 100
▁bakongera 100
▁kanuni 100
▁Stad 100
julikana 100
▁lekaneng 100
▁bouw 100
mka 100
▁adu 100
sekelwe 100
tsang 100
▁ukwafwa 100
▁mugwi 100
▁ingendo 100
▁alcohol 100
Les 100
▁moya 100
▁jiji 100
sigaye 100
meer 100
▁Yoh 100
▁fili 100
▁tiisa 100
▁nganye 100
▁improve 100
▁wambi 100
▁asɛngaki 100
▁customer 100
▁tend 100
shininkisha 100
▁règles 100
▁laela 100
▁bosiu 100
▁café 100
▁Voici 100
aya 100
▁masano 100
▁makholo 100
kuyi 100
▁Nelyo 100
▁igomba 100
▁Puis 100
▁embalwa 100
▁kwezinto 100
▁download 100
▁besondere 100
▁licha 100
webhu 100
▁balingi 100
▁izidakamizwa 100
▁boodskap 100
▁imizamo 100
▁kaloku 100
rama 100
urwa 100
fy 100
rim 100
ELA 100
▁kuier 100
▁tafya 100
endesha 100
▁désormais 100
▁malgré 100
nguye 100
rum 100
▁fokolang 100
bayeho 100
LINGI 100
▁wasebenzisa 100
argent 100
▁Engelse 100
bonile 100
▁fight 100
aller 100
AP 100
nira 100
▁Green 100
▁liketsahalo 100
mbiko 100
lahla 100
▁sales 100
▁deep 100
eta 100
sobanura 100
pola 100
▁begrip 100
▁cika 100
▁bro 100
▁tools 100
hagaze 100
▁ubuteko 100
▁Longol 100
▁bigatuma 100
jika 100
▁Ter 100
▁Mokhatlo 100
gegaan 100
▁ekhuluma 100
khumbule 100
anti 100
rich 100
ikigabane 100
▁elula 100
post 100
▁Mwe 100
▁waarskynlik 100
▁ngotsoeng 100
▁bedrijfs 100
▁retrouve 100
Ama 100
▁Ndako 100
kaki 100
wani 100
▁hotuba 100
riya 100
▁Ame 100
▁bereid 100
▁meli 100
-15 100
▁ukuli 100
▁bisa 100
ako 100
lete 100
ishiba 100
yigugu 100
▁bitsoa 100
▁elembo 100
▁ezili 100
ipfuza 100
▁Mè 100
▁DKT 100
▁ishuko 100
▁biyano 100
▁bikateli 100
rize 100
▁Kaka 100
▁Linɔ 100
▁eeu 100
▁ngezikhathi 100
▁hiervoor 100
▁zisizo 100
▁kobunda 100
▁Commission 100
zirikana 100
▁rijden 100
▁ukushipikisha 100
Sityhilelo 100
▁dicht 100
agiza 100
bes 100
tam 100
▁bani 100
bamwo 100
▁belangrijke 100
▁wakulima 100
abakirisu 100
▁basic 100
▁Tha 100
bajije 100
code 100
Umuntu 100
khululekile 100
dam 100
▁demandé 100
▁bawu 100
bisha 100
ink 100
▁difference 100
lata 100
▁ukumkani 100
▁drop 100
▁mental 100
▁réseau 100
laat 100
nezela 100
▁Rotterdam 100
▁wowote 100
▁heeltemal 100
▁Syria 100
▁Betele 100
▁uN 100
lier 100
▁litatoli 100
▁huenda 100
▁majina 100
ipi 100
▁seemed 100
▁kopekisa 100
▁useful 100
▁ifoto 100
▁esenza 100
▁ananela 100
▁eNingizimu 100
▁although 100
phuza 100
qine 100
▁kwine 100
▁soirée 100
▁kukonka 100
▁morena 100
▁Amandla 100
ntsha 100
▁jeux 100
▁barab 100
▁cent 100
▁Tatu 100
▁alobelaki 100
▁Ukraine 100
▁atamela 100
sandla 100
▁baraza 100
▁liphello 100
▁violence 100
kileng 100
▁bwato 100
▁amamiliyoni 100
▁Nshi 100
▁atunaki 100
▁kisasa 100
▁beginning 100
mere 100
▁eyenza 100
▁chanzo 100
▁schrijven 100
▁Pili 100
nikelwa 100
gqiba 100
▁zorgt 100
▁audience 100
abavukanyi 100
▁mushi 100
▁amabandla 100
kin 100
▁praktijk 100
bintu 100
▁mayanda 100
▁rapide 100
kuhlala 100
▁petites 100
▁beka 100
hard 100
▁minwe 100
lwi 100
hava 100
▁relationship 100
▁ngelo 100
setshenziselw 100
▁regelmatig 100
siga 100
▁twaishiba 100
bus 100
▁cisuma 100
▁bapaya 100
▁overeenkomst 100
▁Même 100
▁bakiri 100
▁epesaki 100
▁Drie 100
▁tšusumetso 100
▁ihlabathi 100
▁moments 100
▁kufuatia 100
▁euros 100
▁fans 100
ileyo 100
▁basizwe 100
▁bahlale 100
▁epesi 100
▁ukwiye 100
liphi 100
tive 100
rement 100
geld 100
sig 100
▁dames 100
mili 100
gakolunye 100
▁twoba 100
▁purchase 100
▁Ara 100
▁sikawa 100
tiek 100
▁bras 100
▁ukwakha 100
nkulu 100
▁Kha 100
▁Februari 100
▁mipango 100
▁ngayinye 100
▁Jumapili 100
▁emhlanganweni 100
▁minɔkɔ 100
▁Like 100
▁indero 100
▁Wethu 100
▁banguna 100
matasa 100
▁ngaleyo 100
▁mabaya 100
▁OF 100
▁Zie 100
tweba 100
bɛ 100
▁Sunday 100
khulile 100
fra 100
phupha 100
▁Steve 100
▁réaliser 100
kunze 100
activité 100
▁tózala 100
▁Bophelo 100
qinile 100
▁prochaine 100
uke 100
bota 100
lan 100
▁toekomst 100
▁Open 100
▁présenter 100
▁asalaka 100
▁Im 100
▁ukubonisa 100
blog 100
▁ikemiselitse 100
ché 100
▁cilangililo 100
▁likaYehova 100
lamo 100
▁opening 100
▁kwixesha 100
ists 100
▁izinyathelo 100
▁PO 100
▁commune 100
▁poste 100
self 100
zonda 100
lalenga 100
▁halisi 100
ganza 100
▁Moenie 100
▁uyakwazi 100
▁Shifwe 100
WI 100
Nederland 100
▁Imbere 100
▁count 100
▁harte 100
▁mfumu 100
▁yokuhlala 100
cks 100
▁Efesu 100
bangele 100
▁atleha 100
▁conc 100
▁mukalamba 100
▁mabanga 100
▁kept 100
NS 100
▁Jack 100
▁ic 100
▁yamara 100
brand 100
cs 100
▁muzirikanyi 100
▁olunye 100
▁engozini 100
Wat 100
guye 100
▁mwinshi 100
oko 100
▁betreft 100
ibakeng 100
fane 100
▁Nairobi 100
nal 100
▁nanje 100
▁Business 100
middel 100
▁uPetros 100
phathe 100
▁garantie 100
izindi 100
▁rangi 100
qhwa 100
▁LI 100
club 100
imbere 100
▁detail 100
▁elaka 100
▁tlisa 100
UM 100
gri 100
▁Jinsi 100
▁Yakhe 100
pus 100
▁mihla 100
▁kubigira 100
▁hoë 100
▁secteur 100
▁vrijdag 100
▁kunalokho 100
▁kokima 100
▁purpose 100
▁users 100
▁spelers 100
▁nsha 100
▁ryose 100
ló 100
▁Wes 100
▁sowat 100
▁mains 100
▁kuvela 100
▁kupeela 100
maal 100
▁ngomsebenzi 100
▁mees 100
▁effective 100
▁Reka 100
▁kinyamakuru 100
▁Iya 100
uki 100
bá 100
4) 100
sani 100
shikira 100
husika 100
▁Tla 100
▁ukuza 100
bulungisa 100
mamitha 100
▁Best 100
▁visite 100
maYuda 100
78 100
▁paid 100
▁bijzonder 100
▁hampe 100
▁changed 100
▁amakhasi 100
▁intambara 100
▁Pilato 100
▁umxhwele 100
▁truth 100
▁février 100
▁silaha 100
lio 100
▁connaître 100
▁icisuma 100
ky 100
mfwa 100
grond 100
▁gikurikira 100
hluka 100
shala 100
belela 100
▁ukubombesha 100
▁komekama 100
▁oonyana 100
▁ebalulekile 100
▁uga 100
▁shop 100
▁entseng 100
▁hetzelfde 100
▁mayi 100
yiqiniso 100
▁tšoaroa 100
▁kulezi 100
▁Duitsland 100
mas 100
gara 100
▁mala 100
lembele 100
simo 100
▁aide 100
lwimi 100
▁hoek 100
▁vallen 100
▁soi 100
▁PE 100
▁progress 100
▁ibumba 100
amahoro 100
rp 100
▁bonus 100
▁USA 100
▁kwelanga 100
▁telle 100
▁gestel 100
delen 100
5% 100
ingene 100
bli 100
▁Monsieur 100
▁Pinterest 100
▁amalyashi 100
musa 100
▁hlompha 100
▁banankwe 100
▁Tour 100
▁sedert 100
▁participation 100
▁icili 100
▁okushiwo 100
changia 100
This 100
▁kukwata 100
▁ntiyari 100
imp 100
▁emikhulu 100
loni 100
semthethweni 100
▁Inani 100
▁taux 100
lesi 100
thethwa 100
jwayelekile 100
▁esisodwa 100
sikole 100
▁esakweli 100
ishe 100
▁31: 100
intahemuka 100
qwa 100
mbuzi 100
nyanisekileyo 100
▁beweeg 100
▁wakuu 100
▁kushinda 100
▁studio 100
▁30, 100
▁59 100
▁hoeft 100
okuhlangenwe 100
▁kolobetsoa 100
tions 100
mhlaba 100
misi 100
kufundisa 100
shona 100
▁Alex 100
ibihe 100
luba 100
buthakathaka 100
▁marche 100
▁absolutely 100
ery 100
▁grow 100
▁ekwiphepha 100
▁gewoonlik 100
FYO 100
▁totalement 100
▁abafwa 100
▁cross 100
tega 100
▁morali 100
▁iimeko 100
▁Abavyeyi 100
▁Tito 100
▁Centre 100
▁Copyright 100
kamata 100
▁Parce 100
▁Sonder 100
▁banyama 100
▁Party 100
▁Mariko 100
▁kwakunga 100
huile 100
esprit 100
Umwami 100
▁komunye 100
▁geweld 100
▁Notre 100
▁serve 100
▁genomen 100
zilwane 100
▁goud 100
▁betekenis 100
ndawo 100
▁nye 100
ware 100
Za 100
98 100
wapo 100
▁wenyene 100
▁pet 100
▁reka 100
▁uhlala 100
zinhlobo 100
▁té 100
nqobe 100
▁Ngeke 100
▁okunye 100
As 100
▁Mooi 100
▁44. 100
▁bonnes 100
▁cilenga 100
▁analysis 100
▁directeur 100
▁couleurs 100
▁Hoewel 100
▁phoso 100
▁nasezi 100
▁kost 100
celwa 100
▁lingu 100
▁umehluko 100
cabangela 100
▁Manchester 100
gxila 100
▁participer 100
leumfwa 100
▁IFI 100
lazi 100
phawu 100
énergie 100
▁parmi 100
intérieur 100
▁isifiso 100
oo 100
kla 100
▁Kepha 100
▁thibela 100
▁Nakong 100
▁gestuur 100
qhe 100
▁nyigisho 100
-2018 100
nkqubo 100
▁kona 100
▁abangaba 100
▁ST 100
▁fair 100
▁possibilité 100
7) 100
▁citwa 100
▁projects 100
▁irya 100
phakeme 100
tusambilisha 100
▁California 100
▁Shirikisho 100
▁ekugqibeleni 100
▁truly 100
▁kubwira 100
▁badkamer 100
▁uiteindelik 100
waarde 100
ella 100
▁iimpawu 100
▁kamp 100
▁geboorte 100
pile 100
tege 100
▁vrye 100
miBhalo 100
thuthuka 100
▁bakalamba 100
▁6; 100
pte 100
▁ngalunye 100
▁vervolgen 100
xwayisa 100
▁Umma 100
nkululeko 100
▁puisque 100
▁gebore 100
▁websites 100
sabe 100
▁masanga 100
▁nader 100
▁onderwijs 100
▁tšehetsa 100
kristo 100
▁iPhone 100
pinga 100
▁adresse 100
ntetho 100
▁tulefwaya 100
dolobha 100
▁69 100
oapostola 100
istes 100
sanzwe 100
ingesiNgesi 100
khulisa 100
láká 100
▁yezi 100
▁Manispaa 100
▁lekhetlo 100
▁Mikoa 100
ingenzi 100
▁bisanzwe 100
▁amekuwa 100
▁montant 100
▁Eh 100
shada 100
▁Ngowe 100
▁loan 100
▁lomuntu 100
▁Usuku 100
▁Bos 100
▁Lorsque 100
kwazisa 100
▁mahhala 100
zeli 100
▁vervoer 100
▁Franse 100
▁uMoses 100
sitshela 100
▁resources 100
▁urugendo 100
Bushe 100
landi 100
▁izenzakalo 100
▁68 100
▁beskerm 100
▁kujifunza 100
▁kwena 100
▁GE 100
▁lwenu 100
▁uS 100
▁kuphi 100
igiheburayo 100
▁daily 100
▁momeseno 100
yizinkulungwane 100
▁kosepelisa 100
▁Once 100
▁ngibe 100
▁boyangeli 100
▁steun 100
kó 100
▁Kwaba 100
▁ubuhle 100
▁KATI 100
▁wanaweza 100
▁analyse 100
▁Abandi 100
▁kuondoka 100
▁Mike 100
kumkani 100
▁fibili 100
▁seeing 100
▁hotels 100
▁uMose 100
▁baYuda 100
hlole 100
▁boot 100
home 100
▁mwandi 100
▁umfanekiso 100
pilibula 100
▁tseleng 100
▁bivugwa 100
▁EU 100
▁benki 100
▁plezier 100
▁devenir 100
hwa 100
▁verkeerd 100
▁ofuna 100
tolewa 100
▁kumaliza 100
Mat 100
▁studies 100
sohokayandikiro 100
▁gauche 100
▁wasanii 100
▁Ngokusobala 100
▁rue 100
▁mchezaji 100
▁5; 100
▁posted 100
▁esilandelayo 100
ald 100
▁sauf 100
neem 100
▁taak 100
mabandla 100
South 100
▁uburenganzira 100
ible 100
tandalila 100
▁asosele 100
thinte 100
▁nood 100
ngabi 100
▁langue 100
▁passion 100
▁risico 100
lukaki 100
▁capital 100
▁politiques 100
achat 100
yenze 100
▁ngokwenza 100
iryo 100
▁garder 100
▁kuonyesha 100
book 100
▁hōla 100
lizwi 100
3. 100
wenze 100
tree 100
sivumelwano 100
▁Ayikho 100
quka 100
▁29, 100
62 100
mlando 100
▁motle 100
▁recommend 100
yafakwa 100
▁ngomba 100
▁ukuthetha 100
▁majukumu 100
▁umukalamba 100
▁Timu 100
▁Gebruik 100
▁sinoku 100
▁marque 100
zenzo 100
▁kijana 100
HU 100
▁succes 100
▁repas 100
▁tataiso 100
mithetho 100
▁keuse 100
▁atikaki 100
▁ziyi 100
▁intahemuka 100
▁allerle 100
▁kudala 100
▁Where 100
▁hara 100
importe 100
ukwizera 100
▁imfwa 100
ot 100
▁rua 100
tuig 100
▁trein 100
▁yera 100
mkela 100
▁Pen 100
▁izihe 100
khuthaze 100
mpahla 100
▁elanga 100
▁Bayisraele 100
▁Utalii 100
▁proberen 100
▁mulopa 100
▁fyabo 100
▁likarolo 100
▁Th 100
giriye 100
▁ngobuqotho 100
▁vrienden 100
▁whatever 100
pwililika 100
▁elincane 100
ages 100
nez 100
▁okwenzeka 100
▁nsambo 100
▁perdre 100
ked 100
▁osemusha 100
▁Kho 100
bafundi 100
▁etuluku 100
▁Babilone 100
balulekileyo 100
▁peace 100
91 100
▁mat 100
▁AL 100
sol 100
▁oya 100
▁ukuma 100
sukile 100
▁zeg 100
ization 100
▁yesikhathi 100
pili 100
didi 100
pingula 100
zz 100
▁kulyo 100
▁kuzungumza 100
▁abaku 100
Ilyo 100
▁bakokaki 100
Duteronomi 100
▁Baefese 100
▁Iciyumviro 100
▁Kisiasa 100
▁SERIKALI 100
▁magnifique 100
▁tatwa 100
elezea 100
▁lehlakoreng 100
▁hōlileng 100
▁ukulawula 100
▁NGA 100
▁kweqiniso 100
▁balateli 100
▁maandag 100
▁kerst 100
▁:-) 100
▁verandering 100
▁ngegama 100
▁dark 100
▁mpanga 100
phathwa 100
▁continu 100
iba 100
▁gebou 100
▁urais 100
hlupheka 100
▁ababini 100
▁nomunye 100
▁member 100
Ze 100
▁Job 100
fakwe 100
▁sprake 100
▁dollars 100
bule 100
▁mbuzo 100
zy 100
ito 100
▁voulez 100
▁bamosusu 100
▁maslahi 100
▁owenza 100
▁rendez 100
▁helaas 100
▁mbinu 100
▁onbe 100
▁blogs 100
erende 100
enkonzo 100
▁efana 100
▁arms 100
fanelekileyo 100
▁classe 100
▁kobota 100
▁ervan 100
▁hors 100
▁singase 100
▁Mpya 100
lawulo 100
▁rushwa 100
ngaphezulu 100
Pro 100
▁nkqubo 100
▁AB 100
▁durant 100
▁Donald 100
▁harde 100
bij 100
▁sortie 100
▁montre 100
ILI 100
▁matsoho 100
▁usizi 100
mupeela 100
▁klere 100
activités 100
74 100
▁eNew 100
▁ameze 100
kufaka 100
▁Plan 100
▁poser 100
▁kobosana 100
▁Baru 100
nxalenye 100
buryo 100
▁maakte 100
ehemu 100
▁rare 100
▁bura 100
▁Tontonkanyeni 100
▁Ujenzi 100
▁football 100
Ca 100
▁Danyele 100
▁Get 100
koreshejwe 100
▁emininzi 100
▁olingi 100
ishibe 100
▁wimbo 100
▁print 100
khonze 100
▁njengezi 100
▁pied 100
▁learned 100
lungise 100
▁Lintho 100
▁ras 100
pfu 100
dire 100
▁uwaba 100
▁honger 100
ungu 100
▁uB 100
▁idées 100
▁gras 100
▁icebo 100
peele 100
ndodana 100
▁shot 100
▁tuzi 100
temwe 100
▁Izingane 100
▁reasons 100
▁complex 100
dd 100
▁ibitabu 100
hlaka 100
▁ability 100
▁influence 100
▁Activiteiten 100
ikigiriki 100
▁maintain 100
▁élèves 100
▁mgombea 100
▁growth 100
▁maamuzi 100
zinsuku 100
nabo 100
▁Beste 100
▁phethahetseng 100
▁ukutu 100
lunge 100
▁kakhudlwana 100
▁ice 100
encwadi 100
ses 100
▁taca 100
▁dhambi 100
▁biboneka 100
ok 100
▁Ré 100
▁Instagram 100
▁manger 100
▁kubakho 100
njini 100
poteza 100
mbili 100
▁Bolingo 100
▁begint 100
▁blad 100
▁athole 100
phethwe 100
ngalo 100
▁imibhalo 100
▁isikhundla 100
fundisha 100
▁abasebenzi 100
▁zako 100
▁towards 100
▁omncane 100
▁esiyi 100
▁ekeseni 100
▁ob 100
▁cold 100
ishami 100
▁clair 100
▁suivant 100
▁Cape 100
▁ngemihla 100
▁hlokahalang 100
1, 100
▁Nehemia 100
▁litholoana 100
▁nzokande 100
ros 100
▁ekufeni 100
▁kukaba 100
▁ukulalela 100
▁wesifazane 100
▁wabantu 100
▁Bale 100
▁daaroor 100
▁kwao 100
▁militaires 100
▁zemi 100
▁Laba 100
▁Congress 100
▁aja 100
▁funde 100
leko 100
▁Julius 100
maSirayeli 100
▁ebusweni 100
▁izizathu 100
▁Joe 100
▁akunda 100
esha 100
▁Ireland 100
▁Bal 100
rangwa 100
1. 100
▁kuanzisha 100
▁sifunda 100
ishirahamwe 100
▁ubukuru 100
▁Peut 100
tungululwa 100
▁kusikiliza 100
▁abigiranye 100
dorp 100
Abantu 100
kabi 100
▁voldoen 100
▁vrees 100
▁grandes 100
▁umoja 100
▁motoka 100
▁ukusetshenziswa 100
▁bakwa 100
▁Aujourd 100
▁Abalayama 100
▁MATUKIO 100
▁bomolimo 100
▁kid 100
▁kulinda 100
shizemwo 100
▁Kassim 100
▁uiteindelijk 100
▁Toen 100
zimvu 100
▁Wet 100
▁uyaku 100
nelle 100
▁ulubembu 100
bhola 100
zorg 100
▁considered 100
▁bishitse 100
▁boeke 100
▁icaha 100
▁meilleure 100
▁mpira 100
▁sector 100
swele 100
tini 100
▁bilamba 100
Hubo 100
tumika 100
MB 100
tum 100
▁partage 100
▁obtenir 100
▁rand 100
ngxoxo 100
bombe 100
▁verschil 100
▁drama 100
▁kumo 100
▁broer 100
bulale 100
▁aanbod 100
▁campagne 100
née 100
▁omdala 100
▁toets 100
New 100
▁families 100
lalanda 100
rn 100
▁regular 100
87 100
▁nummer 100
▁starting 100
▁Qetellong 100
▁voulais 100
qukethe 100
▁politike 100
▁Awu 100
kubusa 100
field 100
▁uitzending 100
▁interne 100
renze 100
▁ozo 100
ars 100
▁pos 100
vic 100
▁Amesema 100
▁rap 100
▁Ea 100
▁HII 100
▁baanzelu 100
▁membre 100
sendaweni 100
▁baali 100
sibili 100
▁Kuva 100
chaze 100
apa 100
▁Luther 100
▁gespeel 100
ngabonakali 100
▁kubekho 100
▁goal 100
▁tšaba 100
amategeko 100
‘ 100
▁bafu 100
bafowethu 100
▁salama 100
▁phi 100
▁Any 100
▁nabangane 100
ondo 100
▁SO 100
▁générale 100
▁Emhlabeni 100
▁cheveux 100
▁ebantwini 100
▁kinyume 100
▁mokuse 100
▁hlōla 100
▁Lyene 100
ngenzi 100
▁mitindo 100
▁Forex 100
NC 100
NU 100
▁baliba 100
▁tas 100
▁malapa 100
vat 100
▁Isaka 100
bola 100
mond 100
▁cookies 100
▁empilweni 100
▁doubt 100
-9 100
▁71 100
▁smart 100
▁ukupeela 100
sting 100
nkuru 100
lus 100
kosten 100
▁trust 100
qede 100
elewa 100
tour 100
▁majibu 100
yebaki 100
intérêt 100
▁fix 100
dessus 100
duka 100
zinikele 100
IM 100
rer 100
▁Old 100
limaza 100
▁verklaring 100
▁couleur 100
▁Ezipito 100
▁banensu 100
▁block 100
▁khatello 100
▁Mwandishi 100
▁Dirk 100
▁Mbere 100
▁umlilo 100
faa 100
▁seconde 100
▁ngesandla 100
▁Twi 100
▁alipokuwa 100
yajabula 100
mdlalo 100
yaba 100
▁calcul 100
▁koyangana 100
▁Jersey 100
ual 100
▁kozongisa 100
▁habohlokoa 100
eten 100
▁actie 100
shukumisela 100
▁izinhlelo 100
angalia 100
wina 100
ndeni 100
bie 100
nsie 100
yebisi 100
lɛ 100
▁join 100
▁groups 100
mper 100
▁actual 100
▁aangesien 100
▁speed 100
▁zira 100
uch 100
▁azoba 100
▁Tweede 100
▁Goed 100
▁ukui 100
Abisirayeli 100
▁sac 100
qembu 100
yer 100
▁kwale 100
▁emonisaki 100
maker 100
▁pho 100
▁parent 100
langilila 100
koreye 100
sinikeza 100
ND 100
▁yomsebenzi 100
▁3; 100
suzuma 100
▁ahlale 100
▁nezo 100
▁longue 100
▁Indoda 100
▁dimanche 100
▁fainali 100
▁suffit 100
▁MAGAZETI 100
▁Voilà 100
▁kwezo 100
▁NCHINI 100
butho 100
▁moving 100
ude 100
appel 100
dder 100
▁ipotsa 100
lale 100
▁natwe 100
shikiwe 100
DI 100
top 100
▁lwesu 100
▁pure 100
▁changement 100
▁bekijken 100
mndeni 100
nee 100
▁ukusi 100
▁Sea 100
werken 100
Juda 100
▁politiki 100
▁designed 100
SHO 100
uzu 100
ateurs 100
fanelekile 100
▁element 100
thumele 100
▁Ste 100
▁mabao 100
mbre 100
▁Lolu 100
▁kutheni 100
qhu 100
ium 100
dume 100
Ningizimu 100
pokelela 100
kingira 100
sekwa 100
▁loss 100
▁vuba 100
▁pictures 100
zuia 100
▁Human 100
▁kunge 100
▁liberté 100
▁preuve 100
▁bwinshi 100
▁JIJINI 100
▁kesho 100
▁mayoki 100
▁smile 100
▁Mtakatifu 100
▁kutangaza 100
▁UDavide 100
kushumayela 100
▁coin 100
tambua 100
dumisa 100
yeke 100
▁ishusho 100
sifundisa 100
ofisi 100
▁sekolong 100
▁1987 100
▁ulikuwa 100
▁center 100
▁Maybe 100
lewe 100
ssant 100
▁kutokea 100
▁ju 100
Mwa 100
gemeenskap 100
kumba 100
▁letsoho 100
▁kufunda 100
▁kufunga 100
akhawunti 100
▁Vu 100
▁simele 100
▁gerus 100
zindua 100
▁gebrek 100
▁wyse 100
▁raisons 100
▁baguma 100
mkele 100
▁04 100
▁Shani 100
▁uule 100
sangu 100
thuka 100
▁gooi 100
▁boletse 100
mveliso 100
ziphi 100
▁vina 100
▁wants 100
▁husband 100
▁takriban 100
▁Friday 100
▁Creative 100
▁umusumba 100
▁umurimo 100
▁vinavyo 100
▁uitzicht 100
teken 100
▁normaal 100
mandulo 100
▁expected 100
▁zawadi 100
rik 100
rée 100
▁ubude 100
▁Fin 100
aat 100
▁Britse 100
IL 100
▁zaak 100
iger 100
▁basanga 100
▁gekomen 100
IE 100
thandana 100
▁avoid 100
▁umukirisu 100
khono 100
▁Gaan 100
▁mwina 100
▁umshado 100
▁etsoang 100
▁IP 100
mor 100
▁emonani 100
▁plekke 100
▁zag 100
▁poging 100
▁Ukuti 100
▁libaka 100
▁Game 100
ngomunye 100
hema 100
▁kaKristu 100
▁kidato 100
▁12; 100
▁kosunga 100
▁chercher 100
ndiza 100
▁Mattheu 100
▁geplaatst 100
▁beyond 100
▁awesome 100
▁masuwa 100
▁mfupi 100
koro 100
▁Town 100
▁1939 100
▁Joang 100
pangile 100
▁Mwasi 100
bantwana 100
▁presies 100
▁elizayo 100
ey 100
▁olo 100
▁Mak 100
▁betrekking 100
▁owodwa 100
habwa 100
▁language 100
▁moombo 100
▁kampingu 100
▁ngoJehova 100
▁27, 100
▁arriver 100
humu 100
▁leshome 100
▁esebenzisa 100
.[ 100
▁sing 100
verantwoordelijk 100
▁Duniani 100
▁kunoma 100
▁yomhlaba 100
OK 100
▁watching 100
batishiwa 100
▁skole 100
▁kupokea 100
▁isivumelwano 100
▁Nazi 100
▁akeneye 100
plant 100
HO 100
funi 100
▁schoon 100
ngalokothi 100
61 100
▁gevallen 100
▁Gelukkig 100
▁College 100
▁campaign 100
▁sourire 100
▁mawili 100
▁icishinka 100
▁botosi 100
dans 100
▁zoezi 100
zane 100
▁oba 100
▁nearly 100
▁ishinga 100
▁oNgcwele 100
enseignement 100
vume 100
▁seks 100
paki 100
▁kg 100
▁coach 100
That 100
mma 100
bazalwane 100
fate 100
▁mugore 100
khulwini 100
shipikisha 100
myeni 100
▁Nako 100
lami 100
▁bangi 100
▁Photo 100
▁regarder 100
umugabo 100
▁nampo 100
siki 100
▁bababa 100
hagira 100
▁básala 100
board 100
▁wageni 100
▁TAIFA 100
▁eqinisweni 100
▁conversation 100
ishibikwa 100
khokho 100
▁taratibu 100
▁kikosi 100
▁zoMbuso 100
stig 100
▁wachten 100
▁jobs 100
cingilila 100
▁amaqembu 100
ob 100
▁contrat 100
inte 100
xolela 100
chaphazela 100
▁EK 100
▁maalumu 100
▁siri 100
▁kambi 100
▁Jull 100
▁zangu 100
▁uzoba 100
▁banganga 100
▁bapakolami 100
▁interessante 100
sekesha 100
▁allez 100
▁belasting 100
mpofu 100
▁ebude 100
▁wajibu 100
▁Elizabeth 100
▁gezegd 100
nig 100
▁99 100
▁uhlanga 100
litendeke 100
▁ngokufanayo 100
▁efforts 100
liba 100
▁dispositions 100
teni 100
▁okuqala 100
▁Min 100
hlaselwa 100
▁balemona 100
▁calme 100
kwenziwa 100
handel 100
Com 100
▁reach 100
▁biranga 100
yiswa 100
▁blind 100
▁miss 100
▁latest 100
▁green 100
▁ejele 100
▁elandi 100
▁fla 100
▁iliyopo 100
▁baapostola 100
▁sosiale 100
gro 100
▁contenu 100
Nkulunkulu 100
▁lecha 100
Hi 100
sengozini 100
▁filonganino 100
▁mid 100
singa 100
▁dik 100
sita 100
▁pepo 100
▁izinhliziyo 100
gaya 100
▁daaraan 100
▁uSomandla 100
▁handen 100
rend 100
tholakale 100
rah 100
▁papa 100
subiye 100
vamwo 100
▁melk 100
▁elu 100
▁protect 100
▁NY 100
pia 100
pes 100
▁col 100
▁imihezagiro 100
▁decision 100
▁bada 100
zin 100
▁Allah 100
▁05 100
zeka 100
▁cenu 100
▁verdere 100
▁baleba 100
lek 100
▁kamili 100
ET 100
lianza 100
▁bestaande 100
diya 100
▁copy 100
▁hlooho 100
▁Britain 100
▁malaika 100
▁ndwi 100
▁homself 100
▁gatatu 100
memeza 100
dada 100
salela 100
onaula 100
▁Soms 100
▁ukuhlola 100
ngaphantsi 100
▁Buku 100
bulo 100
gers 100
23] 100
▁bano 100
▁hate 100
▁continuer 100
masonto 100
▁nkasa 100
▁Smith 100
cell 100
▁aandag 100
ball 100
▁sowel 100
same 100
lutho 100
▁ukwenzela 100
▁seBhayibhile 100
▁iciza 100
▁yarerekany 100
▁trap 100
week 100
▁esɛngaka 100
▁basubwa 100
lar 100
▁shabo 100
▁develop 100
pwile 100
▁dukunda 100
-6 100
▁Hart 100
ugusenga 100
kwakha 100
▁arts 100
▁Zimbabwe 100
cashunwe 100
▁numéro 100
▁Maelezo 100
▁uhakika 100
▁became 100
▁malipo 100
tafuta 100
▁Hendrik 100
hiri 100
thuma 100
koseleshe 100
▁Ngaleso 100
uliza 100
▁cancer 100
▁Yezwe 100
▁swali 100
teen 100
Nyana 100
▁yindlela 100
CI 100
▁womuntu 100
▁Science 100
kombe 100
▁exp 100
▁kwindlela 100
Iryo 100
thando 100
cheza 100
▁siwu 100
▁kereke 100
▁Abraham 100
▁kahlolo 100
▁leggen 100
licht 100
▁voeg 100
mhlophe 100
▁Uw 100
veze 100
▁players 100
▁matériel 100
shukuru 100
▁Jans 100
▁lede 100
▁bakoze 100
▁Bari 100
siko 100
Mthetho 100
▁endlwini 100
▁makoraniro 100
HAA 100
thuthukisa 100
▁normale 100
▁premiers 100
▁sterf 100
▁Mer 100
▁Benshi 100
▁voorbij 100
kuziphatha 100
raka 100
▁mooiste 100
▁Babylona 100
▁40. 100
▁forte 100
tungilila 100
oei 100
▁Oos 100
▁civil 100
0.000 100
lou 100
iden 100
▁statut 100
82 100
▁google 100
MS 100
Mzantsi 100
▁zet 100
chazwe 100
▁kozonga 100
▁gezet 100
▁rugby 100
▁item 100
▁Ami 100
▁Moja 100
gon 100
uc 100
feze 100
▁izilwane 100
umukenyezi 100
hiloeng 100
Ar 100
peelwe 100
quer 100
▁feed 100
ngala 100
▁happens 100
▁beweging 100
base 100
▁mkhulu 100
▁biyumvira 100
▁procédure 100
▁central 100
nengqondo 100
mala 100
▁dr 100
fanyiwa 100
rac 100
▁balance 100
dhaa 100
▁gaz 100
mtshato 100
zwela 100
▁collega 100
image 100
▁ikhono 100
▁mukashi 100
sibini 100
isé 100
xolo 100
▁Kol 100
solwa 100
▁Noe 100
tische 100
▁zizi 100
▁09 100
yobora 100
▁Bag 100
mutemwa 100
▁kobikisa 100
▁ebi 100
sizo 100
▁gewees 100
▁compos 100
▁umugenzi 100
▁alanda 100
▁Paulus 100
von 100
▁lose 100
▁mpaanga 100
▁Kanisá 100
▁lol 100
▁bakómi 100
▁musa 100
▁abanjalo 100
▁02 100
▁ukuwa 100
MU 100
▁abathathu 100
▁BIBILIYA 100
▁SALAAM 100
▁buhanuzi 100
▁mpwemu 100
▁huwelik 100
▁Pieter 100
-17 100
▁boboleli 100
▁mouvement 100
buso 100
▁verklaar 100
fumo 100
▁ferme 100
▁itegeko 100
▁lumelang 100
73 100
▁mêmes 100
▁sorry 100
▁kutwalilila 100
▁kote 100
▁dernières 100
69 100
▁eat 100
▁lino 100
palama 100
▁kuleka 100
zifo 100
lali 100
nier 100
▁vergadering 100
lako 100
▁kokumisa 100
▁umuvukanyi 100
▁Bel 100
kiye 100
▁amahlanu 100
cré 100
▁KUTOKA 100
fune 100
mwene 100
▁bons 100
▁Berg 100
▁Trans 100
objet 100
▁kapele 100
▁kike 100
nceku 100
▁persoonlijk 100
yobe 100
▁umubano 100
▁Morogoro 100
▁agréable 100
▁België 100
ahidi 100
▁middle 100
▁gelyk 100
▁controle 100
▁;-) 100
▁inkcazelo 100
▁Cho 100
▁vriendin 100
▁wachaza 100
▁parts 100
▁KUWA 100
▁ngelithi 100
▁olwalu 100
▁feest 100
▁twacita 100
▁gemiddelde 100
ial 100
▁storm 100
▁bepaal 100
AN 100
▁master 100
▁BLOG 100
stellen 100
ouverture 100
▁Nxa 100
phakamileyo 100
zimali 100
kkie 100
sper 100
▁muku 100
adresse 100
▁ouvert 100
▁akwata 100
▁eline 100
zigidi 100
▁bazwi 100
▁fat 100
lank 100
▁expérience 100
▁boere 100
▁Tsela 100
▁umlomo 100
▁prison 100
▁systeem 100
▁03 100
rashoboye 100
▁betroubare 100
▁utendaji 100
▁KISWAHILI 100
▁mchango 100
▁eketseha 100
▁Christmas 100
▁mimeseno 100
▁botona 100
bipisha 100
▁retraite 100
▁azalaka 100
▁motuka 100
▁netwerk 100
▁AIDS 100
▁waarvoor 100
▁ubuhanuzi 100
▁itakayo 100
▁hokae 100
▁ngenyanga 100
▁wakker 100
▁icubahiro 100
▁easier 100
▁iincwadi 100
▁ntambara 100
▁lisekwa 100
▁ephakathi 100
▁noir 100
▁Brand 100
Con 100
tolo 100
▁virus 100
Testamente 100
▁ifipe 100
▁ziekte 100
samba 100
tajwa 100
▁sell 100
lloa 100
khumbuza 100
▁indi 100
naendelea 100
▁professionnels 100
▁nabazali 100
▁lwaba 100
ijoro 100
VA 100
uer 100
ô 100
▁izindlu 100
▁Ger 100
▁Mipango 100
▁communauté 100
▁mikutano 100
▁straight 100
lufyanya 100
Zenzo 100
▁eyishumi 100
tawala 100
▁vyanditswe 100
shitsa 100
yisebenzisa 100
▁akunjalo 100
cacisa 100
▁wakhuluma 100
▁termijn 100
▁Rome 100
▁IPHEPHA 100
ragira 100
illes 100
▁Max 100
▁sikaJesu 100
▁sokuphuma 100
dlela 100
▁igishika 100
▁ideaal 100
▁Ezekiele 100
▁vormen 100
▁ubulanda 100
▁zam 100
tale 100
spect 100
meko 100
yeza 100
pour 100
belo 100
▁moneni 100
▁utwigoro 100
zifunda 100
▁bestelling 100
xhomekeke 100
▁macho 100
▁vilivyo 100
kule 100
hura 100
zikhathi 100
rekeye 100
▁Turn 100
▁bayebaki 100
▁boleloa 100
▁proposer 100
▁besu 100
lawule 100
koselesha 100
kenye 100
▁additional 100
▁gewone 100
▁hlabathi 100
gy 100
himbarwa 100
kuhlakanipha 100
▁ukuthatha 100
▁technologie 100
application 100
▁kiwe 100
▁;) 100
▁Amazon 100
mand 100
▁partager 100
▁Nchini 100
▁ngomhla 100
wn 100
▁sorg 100
▁Oktober 100
▁abacaice 100
▁terrible 100
▁verwyder 100
▁concours 100
middag 100
▁1941 100
toon 100
▁77 100
▁onderdeel 100
▁Esiny 100
Ver 100
▁fils 100
▁baina 100
▁abagize 100
tetekela 100
▁ufisadi 100
buni 100
▁Kanda 100
▁Camp 100
▁umonakalo 100
▁Njenga 100
phondo 100
natarajiwa 100
▁riho 100
bwelele 100
▁yemera 100
▁umusha 100
fl 100
kuzwa 100
bed 100
▁uyoba 100
lies 100
▁báyeba 100
▁fanang 100
▁amashengero 100
▁17; 100
▁pak 100
▁male 100
mlomo 100
hleka 100
▁derniers 100
namhlanje 100
▁rit 100
▁tip 100
▁Ag 100
▁nengxenye 100
pla 100
kumbi 100
Vi 100
▁samenwerking 100
▁véritable 100
▁Tlhaloso 100
▁molongani 100
▁maombi 100
▁Ukwishiba 100
▁amapepo 100
81 100
khoboka 100
hatira 100
▁vel 100
▁etsisa 100
▁finding 100
▁beke 100
kaanya 100
pigwa 100
▁ngoma 100
rema 100
▁droog 100
ory 100
▁esibi 100
72 100
▁ubundi 100
▁Imyaka 100
été 100
oog 100
letsa 100
ray 100
zelwe 100
▁baleikala 100
▁kugendera 100
ngakanani 100
▁essayer 100
▁wide 100
od 100
hambela 100
sc 100
▁umyalo 100
▁letu 100
-11 100
eloa 100
▁waarschijnlijk 100
mont 100
fel 100
▁sayansi 100
▁udade 100
▁180 100
mculo 100
▁kumbi 100
ér 100
inkuru 100
▁openbaar 100
▁Windows 100
hulumeni 100
▁kurangura 100
ign 100
▁slaan 100
Fa 100
▁restaurants 100
▁faudra 100
▁konden 100
▁Khetha 100
▁nantaryo 100
▁jioni 100
▁Bonjour 100
▁muur 100
▁Biloko 100
play 100
▁fonctionnement 100
▁esiku 100
▁Dank 100
vaart 100
▁prochain 100
▁Verenigde 100
▁Vot 100
▁sinon 100
ore 100
▁sikaJehova 100
senda 100
▁Sondag 100
▁kuzuia 100
▁tuis 100
zindlela 100
▁response 100
maqembu 100
TER 100
pot 100
▁verbeter 100
▁Since 100
▁ayandi 100
▁ripoti 100
melwe 100
▁sympa 100
▁usenoku 100
bia 100
bulu 100
seNingizimu 100
▁ushauri 100
ngcolile 100
endele 100
silisa 100
fic 100
Ex 100
▁ruri 100
takatifu 100
kamu 100
tá 100
ped 100
▁yavuga 100
▁DO 100
lelenga 100
▁ouder 100
tshwa 100
▁kwari 100
▁gekregen 100
▁mozindo 100
▁Uwitwa 100
▁encourage 100
▁bucishinka 100
▁stryd 100
▁ukusumina 100
▁PILI 100
▁particularly 100
▁personnage 100
▁thoughts 100
▁benefit 100
▁ait 100
▁bafwaya 100
phendukela 100
▁kwengqondo 100
▁loba 100
wila 100
▁gebeurt 100
teer 100
▁ungakwazi 100
▁author 100
▁geldt 100
▁ikomeye 100
auto 100
▁ikibazo 100
khupha 100
▁Urukundo 100
▁voordeel 100
▁juge 100
▁Shein 100
▁amasha 100
thembela 100
daka 100
zipho 100
▁dollar 100
▁yiyo 100
ged 100
▁Klein 100
-30 100
▁phase 100
▁lekholo 100
ibikorwa 100
▁rou 100
▁diegene 100
Pi 100
▁bandimaka 100
▁demain 100
▁Tro 100
londoloza 100
▁Mule 100
▁Kr 100
▁Naomi 100
▁gutsimbataza 100
▁tšo 100
▁Baloma 100
▁1985 100
▁throughout 100
▁born 100
▁decide 100
▁Selon 100
▁botšehali 100
▁abasubwa 100
▁mosolo 100
▁wist 100
▁vitabu 100
▁73 100
ruzitiro 100
igikorwa 100
adore 100
mende 100
based 100
▁ngako 100
▁dia 100
▁populaire 100
roep 100
ruhusu 100
▁Azam 100
mKristu 100
▁malako 100
▁apply 100
uwe 100
leer 100
▁etela 100
▁izithelo 100
bonakale 100
▁uBaba 100
suswa 100
Yuda 100
▁kwetu 100
▁appreciate 100
hoek 100
nomdla 100
▁kulaba 100
▁bayaki 100
▁imigambi 100
▁ingabirano 100
▁Com 100
▁balekabila 100
▁Bou 100
▁display 100
qhelekileyo 100
shiwi 100
▁Pra 100
▁yedwa 100
▁Cependant 100
▁appropriate 100
▁litšobotsi 100
▁earlier 100
▁appear 100
▁jitihada 100
▁mashabiki 100
gter 100
▁SikaNkulunkulu 100
▁1984 100
▁Wazee 100
▁NE 100
▁kenya 100
▁daarbij 100
▁roll 100
▁senya 100
just 100
▁waaronder 100
▁bakufi 100
hejeje 100
▁Kopesa 100
ziswa 100
▁helder 100
▁spin 100
▁Global 100
sohowe 100
▁handig 100
gishobora 100
sses 100
▁réserve 100
lende 100
▁quant 100
▁Usizo 100
▁deelnemers 100
▁ukuqhubeka 100
▁erken 100
pfuye 100
▁ad 100
▁ajabu 100
▁yumva 100
▁meleng 100
▁longwa 100
▁includes 100
ANA 100
▁update 100
▁Amadoda 100
gqoke 100
▁mulungu 100
LU 100
▁amasengesho 100
▁Werk 100
▁kununua 100
ntaba 100
avond 100
▁Use 100
avance 100
▁toba 100
▁Eric 100
▁sfeer 100
▁étais 100
stof 100
▁laas 100
ota 100
▁Toch 100
iel 100
▁realize 100
▁umtshato 100
iv 100
▁benefits 100
▁abaice 100
▁require 100
qué 100
▁gukura 100
organisation 100
▁Bakorinthe 100
▁mucinshi 100
▁Mafunzo 100
▁marehemu 100
khulekela 100
▁mikóló 100
bhizinisi 100
lati 100
fikapo 100
Watch 100
▁immediately 100
▁kwangaphambili 100
▁Search 100
▁maadhimisho 100
▁worse 100
▁Willem 100
programma 100
SH 100
▁iinono 100
wys 100
▁processus 100
▁Mad 100
▁Augustus 100
▁extremely 100
Zulu 100
▁insobanuro 100
arm 100
trou 100
▁seven 100
luki 100
▁bibereye 100
▁limited 100
▁gebracht 100
▁mandat 100
word 100
▁kosimba 100
▁zokuqala 100
▁intwaro 100
▁moyenne 100
salaki 100
hlathi 100
▁song 100
▁bahati 100
wijk 100
▁uhlale 100
▁gebring 100
rak 100
date 100
▁participants 100
▁dragen 100
ndá 100
nsa 100
-14 100
tumiwa 100
soek 100
neli 100
▁ukuzwa 100
▁sang 100
▁Abafundi 100
tas 100
simu 100
khanda 100
▁nodige 100
▁truc 100
▁Dictionary 100
▁sociaux 100
▁conscience 100
▁emihlanu 100
▁Although 100
▁Yingakho 100
▁permettant 100
▁byvoorbeeld 100
pende 100
▁foot 100
zoza 100
stuk 100
iza 100
▁zokuziphatha 100
leven 100
kyk 100
kunceda 100
▁Paki 100
lis 100
▁Urusi 100
▁atanga 100
term 100
▁67 100
landelayo 100
nkampani 100
ngoro 100
71 100
▁regarding 100
▁verwacht 100
▁vooraf 100
▁umphefumlo 100
▁komende 100
▁phrase 100
sane 100
▁motseng 100
dent 100
▁rose 100
▁bevind 100
ratumye 100
▁cherche 100
read 100
▁25, 100
▁lube 100
ngɔ 100
▁kunokwenzeka 100
▁serais 100
▁kwisa 100
cimfya 100
▁pota 100
rimbura 100
zira 100
▁Qhooa 100
▁veroorsaak 100
▁khoebo 100
▁malumbo 100
▁Misschien 100
▁Usalama 100
▁sehlabelo 100
▁instrument 100
▁endroit 100
▁senior 100
tewe 100
IG 100
▁faisant 100
▁kuzoba 100
▁worry 100
Funda 100
lule 100
▁nezimo 100
▁gives 100
▁kukw 100
▁okulungileyo 100
balaseleyo 100
rings 100
▁gereeld 100
maken 100
▁Eyona 100
ncoma 100
▁kubatizwa 100
▁oza 100
▁whom 100
▁okuba 100
ikele 100
rium 100
▁Bro 100
hoe 100
balandeli 100
▁isigijimi 100
fikelela 100
thengisa 100
hore 100
▁samedi 100
kzij 100
▁tabale 100
▁Mc 100
▁24] 100
▁Banda 100
▁linthong 100
sekho 100
▁ngezinga 100
▁arrivé 100
▁tente 100
▁nam 100
mbwe 100
lisebenzisa 100
▁Izo 100
ncedo 100
nkulumo 100
▁Kinshasa 100
▁ingawa 100
▁effects 100
▁individuals 100
zingane 100
ndalo 100
andaliwa 100
vig 100
nyanya 100
▁Enyanisweni 100
▁darem 100
▁property 100
pole 100
rije 100
▁kusimamia 100
▁mitó 100
hésitez 100
▁akuyona 100
▁Mtu 100
luntu 100
▁LoMbuso 100
▁Mstaafu 100
▁mangolo 100
▁gushinga 100
▁mogelijkheid 100
jengwa 100
▁roho 100
meng 100
▁olie 100
▁Mahara 100
▁experiment 100
▁mada 100
▁br 100
▁humor 100
shita 100
▁kweso 100
▁lesiXhosa 100
hami 100
paala 100
▁bakaYehova 100
▁noThixo 100
▁kr 100
▁Page 100
▁isiyo 100
▁Moses 100
▁UBU 100
dict 100
▁talá 100
lit 100
▁fera 100
▁isabelo 100
▁Dag 100
▁zilizopo 100
itemenwa 100
▁Etanda 100
▁basili 100
▁akoresha 100
▁fur 100
▁SEO 100
▁verplicht 100
besha 100
mngane 100
▁amwebele 100
zeni 100
cule 100
▁Pha 100
▁devez 100
93 100
▁Bililingi 100
▁Sommige 100
▁scène 100
▁rusangi 100
phikisa 100
▁maadili 100
▁Mandela 100
▁motsoalle 100
SU 100
▁ngokucophelela 100
▁84 100
kusebenzisa 100
LAND 100
▁limi 100
▁modèle 100
tembelea 100
▁politiek 100
ANGA 100
▁laola 100
▁sociales 100
thathwe 100
▁Ikiwa 100
▁alo 100
▁stoel 100
▁Yiba 100
▁incazelo 100
bongi 100
una 100
▁SC 100
HE 100
▁KUU 100
▁bakaJesu 100
cine 100
▁Kuri 100
▁kuwasiliana 100
lekele 100
git 100
▁déco 100
▁doctor 100
▁rights 100
▁lira 100
▁aime 100
▁region 100
▁nenjongo 100
zile 100
▁baqala 100
▁110 100
ED 100
▁sebelise 100
▁kennen 100
ngum 100
▁dieren 100
▁kumbe 100
▁makuu 100
▁uwinga 100
▁Library 100
▁kutloisiso 100
▁sekondari 100
▁vrywillige 100
▁feedback 100
▁fokus 100
zogira 100
baphostoli 100
▁myeshi 100
▁michuano 100
▁lingoliloeng 100
rakunda 100
▁facilement 100
yemba 100
sukela 100
▁cd 100
uburyo 100
▁nokwenza 100
▁connaissance 100
▁Zorg 100
▁Team 100
▁abaya 100
▁horen 100
▁tool 100
ved 100
▁wagonjwa 100
Soki 100
▁Sonke 100
▁emlonyeni 100
▁Kakade 100
▁idatha 100
▁waiting 100
▁Edward 100
▁statement 100
▁visage 100
kerk 100
▁kuwapa 100
▁vak 100
ENT 100
▁ongumKristu 100
▁Okanye 100
▁shoe 100
ngasho 100
Moto 100
▁vakansie 100
▁bomoto 100
▁Ham 100
▁features 100
bike 100
▁bri 100
▁knows 100
likwata 100
▁richting 100
▁yamu 100
▁Ukutemwa 100
▁Izindlela 100
ose 100
▁Lwe 100
▁ngokwanele 100
▁passed 100
▁ernstige 100
▁hehe 100
zinhlekelele 100
▁amezi 100
khuthazwa 100
▁Vandaag 100
▁hlophisitsoeng 100
bapristi 100
▁okusemandleni 100
▁bokuthi 100
▁mbunge 100
▁igihugu 100
▁utwa 100
▁bica 100
▁indruk 100
▁kusesema 100
▁liba 100
zincwadi 100
▁Masiya 100
▁thabisang 100
eva 100
▁NASA 100
Unis 100
low 100
bonge 100
▁gebed 100
▁mwanda 100
luphi 100
▁2015, 100
iro 100
sum 100
▁uitvoering 100
▁Because 100
▁ngemali 100
▁liter 100
▁sili 100
▁DVD 100
▁Ugu 100
▁demand 100
▁zingase 100
▁drugs 100
heza 100
▁porter 100
▁Injili 100
▁activité 100
funyanwa 100
▁izipho 100
vorm 100
BC 100
AJI 100
mileyo 100
gabo 100
ister 100
kop 100
▁situatie 100
pak 100
▁Sp 100
▁neli 100
thabathe 100
▁Alleen 100
▁excited 100
▁makubaliano 100
balekela 100
yina 100
▁majorité 100
▁bankashi 100
▁ervaren 100
▁kulevya 100
▁mako 100
shintilila 100
▁ayaki 100
▁mariage 100
▁Moea 100
Molimo 100
hlushwa 100
▁munyinefwe 100
▁hloekileng 100
▁ngaqala 100
▁verslag 100
▁partout 100
bizo 100
sizwa 100
▁uwari 100
▁98 100
thuba 100
nden 100
▁powerful 100
▁65: 100
▁highly 100
▁umfundi 100
▁Canke 100
buhlobo 100
komst 100
ret 100
hilela 100
blo 100
mbane 100
▁genoemd 100
oba 100
▁responsable 100
▁bohale 100
▁umzamo 100
bomfiwa 100
liwe 100
▁Kwakhe 100
gate 100
▁emibi 100
▁icese 100
▁ayaba 100
▁partijen 100
▁buno 100
woord 100
dumile 100
gxo 100
nhliziyweni 100
▁volgt 100
▁amaherezo 100
gijima 100
▁bophara 100
▁laptop 100
▁Kilimanjaro 100
▁Studio 100
vakalisa 100
▁voedsel 100
▁lolendo 100
▁pressure 100
menyesha 100
mazulu 100
▁okungokomoya 100
▁sweet 100
avec 100
bavu 100
▁Oling 100
kies 100
▁Does 100
▁biteye 100
komeza 100
▁instant 100
▁29] 100
weer 100
▁Utamaduni 100
▁khanya 100
rindiriye 100
▁hewa 100
▁Barcelona 100
▁droite 100
▁levels 100
▁lebisa 100
elen 100
cap 100
▁Tango 100
bond 100
▁ngokoqobo 100
▁teams 100
▁blik 100
zel 100
▁Boere 100
▁rupapuro 100
▁havuga 100
▁vertaling 100
ière 100
▁vin 100
bikwa 100
▁Huis 100
melana 100
Holo 100
▁dacht 100
kind 100
▁shali 100
▁chien 100
tshele 100
▁journal 100
aand 100
gcwaliseka 100
▁geb 100
wezi 100
print 100
▁damage 100
hlwa 100
▁ubusa 100
▁Ziziph 100
mbela 100
▁lack 100
▁Molul 100
▁Hamorao 100
▁mahusiano 100
▁perspective 100
▁liaparo 100
▁maximaal 100
▁Phawula 100
▁devient 100
▁croire 100
▁drank 100
▁matibabu 100
vuselela 100
▁Kilimo 100
▁openbare 100
▁mpera 100
free 100
▁abaupana 100
▁perd 100
▁abafowethu 100
▁ngeso 100
zinceku 100
▁eme 100
▁ngendlu 100
▁kukosa 100
▁Ban 100
▁OP 100
fanye 100
pesa 100
▁déc 100
iweyo 100
poro 100
fanywa 100
pususha 100
▁rig 100
▁kwaad 100
lation 100
▁Yu 100
▁ingeso 100
▁voetbal 100
▁kamo 100
stap 100
viv 100
▁Cali 100
Pha 100
press 100
▁permanent 100
▁Imibuzo 100
velele 100
zini 100
fisha 100
▁suppose 100
mal 100
▁duti 100
▁alim 100
▁ukungabi 100
▁kukutana 100
▁nag 100
▁mshindi 100
stal 100
▁Farao 100
▁average 100
▁Research 100
▁Katolika 100
▁ntama 100
▁welcome 100
▁yikuphi 100
▁middag 100
▁konyokwama 100
web 100
▁ngalolu 100
▁Minder 100
▁bipfuza 100
bert 100
▁Thina 100
▁bevestig 100
▁veiligheid 100
kumisa 100
▁cru 100
▁verdien 100
▁rira 100
hlelwa 100
▁eyokani 100
▁Sarah 100
bin 100
▁ukuqinisekisa 100
▁ukusambilisha 100
iff 100
▁ilungu 100
▁persoonlike 100
▁Kaap 100
▁nine 100
▁vaut 100
▁voelen 100
ngaze 100
▁wazee 100
thule 100
▁Umntu 100
▁Mil 100
▁imfundiso 100
br 100
▁inzuzo 100
▁ukuboko 100
▁alitemenwe 100
sangani 100
kabe 100
▁ekobo 100
yikho 100
olu 100
▁Quelle 100
mbalwa 100
▁balebomba 100
▁wall 100
▁centrale 100
▁Nete 100
▁akim 100
▁hot 100
▁georganiseerd 100
▁succès 100
▁zimwezimwe 100
▁bonheur 100
▁voltooi 100
▁twingasambilila 100
▁besonderhede 100
▁umulume 100
shiba 100
▁ukwaluka 100
▁basebenzisa 100
▁icalengele 100
▁Bwami 100
▁setšoantšo 100
▁maladie 100
▁nazwaki 100
▁khaolo 100
▁uMoya 100
▁situasie 100
thethe 100
▁ngokungathi 100
bumbwa 100
fyalwa 100
usu 100
64 100
▁discuss 100
madodana 100
arrêt 100
kara 100
▁digitale 100
boom 100
test 100
rin 100
iens 100
kre 100
▁utwo 100
ijambo 100
▁umwidegemvyo 100
▁lutte 100
▁ebona 100
Nta 100
▁boombo 100
▁tai 100
kumbuka 100
▁onderhoud 100
uga 100
ibu 100
▁limit 100
▁except 100
tši 100
▁abafileyo 100
▁kili 100
▁shimapepo 100
▁cor 100
▁salon 100
slaan 100
▁physical 100
▁abuse 100
siqingatha 100
▁tlotsitsoeng 100
▁uiteraard 100
▁opdrachtgever 100
Johane 100
▁Mfuko 100
▁nakalya 100
▁built 100
▁jamaa 100
▁pin 100
▁molekane 100
▁ubonisa 100
▁vraagt 100
▁Tabia 100
ububasha 100
sobala 100
▁Moholo 100
▁mentioned 100
ambako 100
khukhu 100
▁ship 100
see 100
▁débat 100
nant 100
▁Wit 100
senge 100
▁elwandle 100
▁ngokuhamba 100
waye 100
sikhumba 100
mgangatho 100
fanyia 100
helo 100
▁40: 100
▁wonderlike 100
BI 100
bord 100
▁umvuzo 100
▁sawo 100
▁finir 100
komi 100
▁ingaba 100
▁(18 100
Pe 100
phelela 100
▁lwesi 100
▁Isizathu 100
▁tau 100
▁verbinding 100
▁blue 100
▁systems 100
▁natendeke 100
▁86 100
▁ziza 100
▁com 100
▁punte 100
hindu 100
▁Kuthiwa 100
▁tl 100
para 100
▁levens 100
▁madoda 100
▁UP 100
kwegera 100
nothando 100
ntombi 100
▁noFakazi 100
▁previous 100
banzi 100
▁Piet 100
weli 100
▁Egepeta 100
▁Bushiku 100
▁sikisiki 100
▁urugamba 100
▁Monday 100
▁jardin 100
rere 100
▁gedink 100
▁cri 100
▁alivyo 100
▁discovered 100
vir 100
Europe 100
lambo 100
▁ekokani 100
keer 100
▁kukaa 100
eld 100
umwana 100
▁Ukuntu 100
qolo 100
▁rivier 100
▁ideale 100
▁wafa 100
▁OK 100
▁makama 100
▁ukw 100
▁lancer 100
belwa 100
yaki 100
...” 100
▁33: 100
▁cou 100
▁shesu 100
▁uJakobe 100
▁slim 100
▁requirements 100
▁dolobha 100
kumbwa 100
▁impera 100
▁rain 100
▁ukwesaba 100
ziphatha 100
▁soorten 100
▁cile 100
lolela 100
▁Duitse 100
khasi 100
▁dogter 100
vangeli 100
▁disponibles 100
sifundo 100
luncedo 100
thethelela 100
endaba 100
toi 100
▁kubelenga 100
▁novel 100
tane 100
dade 100
▁hakika 100
▁elobaki 100
▁eziphathekayo 100
▁mpanuro 100
▁Kiislamu 100
▁Ander 100
▁commencé 100
liya 100
balilepo 100
▁wumva 100
▁isonto 100
▁Anti 100
umwizigirwa 100
▁zul 100
▁koyangela 100
▁cur 100
▁dukesha 100
▁Naphezu 100
▁(4 100
sels 100
lwalamano 100
▁nodadewethu 100
hasha 100
▁bampasi 100
▁kwamen 100
▁imithandazo 100
▁bikwiye 100
dden 100
▁tali 100
▁imagine 100
kundige 100
wet 100
cat 100
jies 100
atrice 100
▁bereiken 100
nique 100
▁ngithi 100
▁experts 100
▁okwenziwa 100
kano 100
buhle 100
dus 100
▁bahari 100
▁29: 100
raal 100
▁likita 100
▁Amen 100
lingaka 100
hlamba 100
▁siphila 100
sila 100
auteur 100
▁Year 100
lijn 100
▁Win 100
▁Mwami 100
Hariho 100
▁eiland 100
Kumkani 100
▁hawaku 100
▁studente 100
▁honor 100
▁pamba 100
jabulisayo 100
▁Ushirikiano 100
▁uzalishaji 100
▁Private 100
▁39. 100
▁Institute 100
▁vyuo 100
▁tlaleha 100
▁log 100
▁tšabo 100
▁Beteli 100
phone 100
▁mitatu 100
▁kwezigidi 100
▁omtrent 100
▁mwishoni 100
▁amalwele 100
▁yom 100
▁zokuba 100
taye 100
▁network 100
▁bubereye 100
khangele 100
phezu 100
▁Up 100
▁Baebele 100
▁utilisé 100
▁nkoa 100
tume 100
cor 100
▁bespreek 100
abami 100
▁Mense 100
▁noKristu 100
ipeela 100
▁moved 100
▁skuld 100
amu 100
▁ukucula 100
ffer 100
▁kibi 100
šo 100
▁Play 100
▁78 100
▁bediening 100
▁Seun 100
nqume 100
lekela 100
▁aliba 100
▁PM 100
▁kwakukho 100
natoa 100
pati 100
▁flat 100
kusiza 100
ngafwa 100
▁weza 100
vule 100
▁hé 100
▁ronde 100
▁canditswe 100
▁lamaKristu 100
ood 100
▁invest 100
kro 100
zisebenzisa 100
phelile 100
▁beli 100
▁Catholic 100
▁intekenaar 100
▁Singida 100
▁telefone 100
▁cour 100
namuhla 100
ngalila 100
▁umwaice 100
▁rooi 100
▁nafuu 100
cipandwa 100
tiina 100
▁banzela 100
letontonkanya 100
▁kwaphela 100
sure 100
▁dawe 100
▁Monene 100
roma 100
▁ster 100
vra 100
▁jo 100
▁allowed 100
▁Masa 100
▁irenga 100
donsa 100
▁lumellana 100
▁attack 100
▁swak 100
▁twakwata 100
▁inono 100
ksie 100
NGO 100
▁territoire 100
ST 100
▁disponible 100
▁voorkom 100
▁imfashanyo 100
turi 100
lebomba 100
▁6] 100
▁Yoku 100
inyigisho 100
El 100
hume 100
▁pleine 100
▁verlies 100
▁abakiri 100
▁wapo 100
eme 100
dding 100
▁kracht 100
kers 100
diens 100
Il 100
▁gesteld 100
nokwenza 100
ncinci 100
ngeka 100
mema 100
ANI 100
▁azwi 100
▁kanwa 100
ebokose 100
savye 100
mibuzo 100
▁mibuzo 100
lemona 100
hlelwe 100
linganya 100
▁Pierre 100
▁Bur 100
▁Live 100
ient 100
▁maandamano 100
▁bevolking 100
▁Wanafunzi 100
▁Skrif 100
▁professionele 100
phephandaba 100
linganiselwe 100
▁Wakristo 100
▁Speel 100
bamemezeli 100
▁Kituo 100
NGA 100
wood 100
▁slow 100
▁abekala 100
kundwa 100
▁Khawu 100
▁potso 100
ngamakhilomitha 100
Ntshona 100
▁ukulanshanya 100
▁découverte 100
▁Wees 100
▁ijisho 100
▁ufanele 100
▁kumsebenzi 100
▁dix 100
▁kuandika 100
▁multiple 100
▁ato 100
▁izimfundiso 100
sang 100
tige 100
▁izivakashi 100
▁vriendelijk 100
Sha 100
EFF 100
▁payment 100
luhlaza 100
Mwe 100
▁CUF 100
▁akendaki 100
▁sounds 100
ités 100
▁quotidien 100
right 100
sanguluka 100
▁loopt 100
▁uJobe 100
▁Court 100
▁Bapis 100
▁neye 100
▁umele 100
▁Mes 100
▁lower 100
▁method 100
▁kureka 100
▁esisha 100
twarwa 100
mbele 100
▁kompyuta 100
▁Mtandao 100
▁rukundo 100
▁bleek 100
▁blanc 100
▁creating 100
▁Adult 100
▁oyingcwele 100
eeltemal 100
wen 100
sumine 100
▁hususan 100
bulumko 100
▁hoeveelheid 100
▁leboha 100
▁mwandishi 100
▁Njia 100
▁Office 100
ats 100
▁Ikintu 100
▁taelo 100
vert 100
▁Island 100
▁esho 100
▁attempt 100
miphi 100
Thixo 100
taweza 100
▁klink 100
▁behoefte 100
▁isukulu 100
tora 100
▁pièce 100
▁bahlala 100
▁degree 100
▁voiture 100
▁ressources 100
▁130 100
▁kotuna 100
▁Comp 100
▁mom 100
▁organisation 100
▁inwoners 100
▁isiqondiso 100
▁usho 100
▁mume 100
Ndi 100
▁forget 100
konkapo 100
▁Wewe 100
▁eziye 100
thwe 100
▁catch 100
▁bakwete 100
santya 100
emewe 100
▁50% 100
▁inkomezi 100
mbuza 100
iek 100
▁heure 100
▁Allemagne 100
kri 100
sabelo 100
▁kar 100
weyo 100
mbewu 100
▁obukhulu 100
HI 100
koop 100
▁MPYA 100
▁Sanaa 100
▁abafazi 100
▁voorwaarden 100
Bh 100
tangazaji 100
kopi 100
▁thepa 100
▁liithuti 100
▁floor 100
ibohero 100
▁ontbijt 100
zenzela 100
▁exchange 100
▁Kunoko 100
▁darasa 100
▁empini 100
▁kusengaphambili 100
▁mwanafunzi 100
▁variety 100
▁Ainsi 100
shaji 100
nolwazi 100
▁lukaThixo 100
▁iintlanga 100
tez 100
▁ukumfwikisha 100
▁abone 100
▁published 100
▁finalement 100
▁607 100
▁ewu 100
▁ngiyo 100
▁1918 100
▁ergens 100
▁promotion 100
amahera 100
▁Ann 100
▁spa 100
▁lobu 100
▁leveren 100
▁efficace 100
▁okuku 100
▁professionnel 100
▁camp 100
prijs 100
bira 100
mann 100
loka 100
tamba 100
cked 100
▁isigqibo 100
▁yokugcina 100
aider 100
▁rus 100
▁Benjamin 100
▁makomi 100
vye 100
vie 100
▁Marc 100
thenge 100
▁oh 100
▁usajili 100
ified 100
metoa 100
▁Ako 100
dakwiye 100
▁Fred 100
▁Chinese 100
seMelika 100
▁zacu 100
ifs 100
▁tapali 100
laar 100
▁abonisa 100
ganira 100
ishileba 100
und 100
ffen 100
▁kotsing 100
▁kwitaba 100
kalamba 100
kend 100
how 100
thembele 100
▁comfort 100
▁siècle 100
▁zichzelf 100
yama 100
▁lukaJehova 100
▁Raad 100
▁sewe 100
▁verse 100
▁cerekan 100
▁significant 100
vou 100
▁mengata 100
thokoza 100
▁Nkulunkulu 100
▁yashaka 100
dlale 100
▁monganga 100
▁lastig 100
▁Berlin 100
phelelwa 100
▁Maart 100
▁kuchangia 100
bakho 100
zwakala 100
▁nusu 100
▁Central 100
▁mpate 100
▁ngokuphila 100
mdala 100
▁kokokisama 100
▁sentiment 100
vimbela 100
▁midden 100
▁description 100
▁kwalengele 100
▁waphendula 100
Oh 100
▁Via 100
etseng 100
▁Injongo 100
▁opsie 100
▁kufuata 100
▁abanono 100
wamina 100
▁Spa 100
▁2017, 100
▁objectif 100
▁Tre 100
▁mbona 100
▁Sala 100
▁kamers 100
▁ebimaki 100
zinkinga 100
▁amahle 100
▁shakwe 100
▁dessin 100
fatsa 100
▁finish 100
▁kwesha 100
▁ah 100
busuku 100
simamia 100
pesaki 100
▁advantage 100
▁halmashauri 100
▁mazoezi 100
▁tlhompho 100
▁khaotsa 100
umwanditsi 100
▁eteyelo 100
▁Education 100
▁alondolwele 100
▁litaelo 100
▁rishasha 100
cept 100
▁bulungami 100
▁Gen 100
▁gukurikiza 100
▁mosantu 100
RU 100
▁abakwata 100
▁hlōleha 100
▁botángi 100
▁nsɔni 100
Abakirisu 100
xh 100
▁database 100
▁Sans 100
sikhundla 100
Natal 100
▁imithwalo 100
▁siel 100
▁uSawule 100
ngokuphumelelayo 100
bini 100
MP 100
") 100
▁bwayo 100
▁leiden 100
shini 100
▁khopolo 100
▁kutsho 100
▁rechter 100
orde 100
▁compter 100
▁makasine 100
▁waard 100
uda 100
fashije 100
lolu 100
▁Hello 100
▁yobu 100
▁iyindi 100
▁zezwe 100
stru 100
spi 100
tang 100
▁blyk 100
▁msimamo 100
▁Natulande 100
▁Eneneni 100
▁eceleni 100
lipo 100
▁Shinyanga 100
▁bibongiseli 100
▁ngokuyinhloko 100
▁bososoli 100
hungu 100
▁tlohela 100
game 100
▁susumelletsa 100
oud 100
ngunaphakade 100
▁abamamaji 100
▁enjoyed 100
▁waweze 100
▁ngokunga 100
▁kiume 100
▁ukubhekana 100
thé 100
▁ufunde 100
▁ifingalenga 100
▁Bathi 100
dlulisela 100
rade 100
▁amalungiselelo 100
▁Lena 100
mate 100
▁Elo 100
▁zenza 100
▁Bora 100
▁grens 100
▁setting 100
▁wabuza 100
▁gift 100
▁Rob 100
▁yeka 100
shikana 100
rabona 100
tulanga 100
▁matlafatsa 100
▁nita 100
▁lipolotiki 100
▁balimu 100
ienne 100
sikolo 100
endawo 100
▁makazi 100
Sonto 100
yanguka 100
kabilwa 100
▁ava 100
▁witte 100
2, 100
▁Kwaye 100
senziwa 100
wamisha 100
▁abomfeshe 100
▁kurudi 100
hr 100
▁ekosalema 100
▁gebalanseerde 100
▁mikemike 100
▁society 100
esi 100
▁Nasional 100
▁Mbula 100
▁Development 100
▁vertellen 100
ines 100
▁misango 100
tanzwe 100
▁casino 100
pass 100
▁bwenu 100
bangane 100
▁pur 100
bafazi 100
▁uniquement 100
▁shiwi 100
tom 100
▁inhlangano 100
paswa 100
▁naweek 100
UR 100
▁Jong 100
▁organization 100
▁complet 100
mthandazo 100
bize 100
▁mur 100
▁Article 100
▁regarde 100
ath 100
▁boy 100
khululwa 100
▁kudu 100
▁esibhedlela 100
thembe 100
▁Sou 100
▁attitude 100
sayithi 100
▁chair 100
kuzange 100
phazamisa 100
bathanda 100
napo 100
latwafwa 100
▁landen 100
atu 100
vale 100
▁tur 100
▁Yakho 100
▁Sisi 100
rijke 100
▁Lyonse 100
inzu 100
sɔ 100
ndimi 100
▁unless 100
▁indimi 100
▁applications 100
iez 100
▁eigenaar 100
▁noM 100
▁2015. 100
IR 100
▁pona 100
6. 100
shili 100
qiniseke 100
▁ukucite 100
▁119: 100
▁occasion 100
▁kwathi 100
▁Kunga 100
▁animal 100
▁malyashi 100
▁finyella 100
▁League 100
▁Desemba 100
▁silence 100
▁mohau 100
taho 100
▁ahanini 100
bombele 100
▁walipo 100
▁Zoals 100
▁elements 100
VER 100
▁alemona 100
mqondo 100
▁Koning 100
qhubela 100
hanganye 100
▁wundi 100
▁eM 100
FI 100
▁amabula 100
▁ebizwa 100
TM 100
Jeremiya 100
▁ahadi 100
▁eenvoudige 100
SP 100
rch 100
▁takwaba 100
▁Kufuneka 100
▁atom 100
▁enda 100
▁mokomi 100
▁banyu 100
yenzayo 100
ctor 100
▁igitangaza 100
fye 100
▁baleya 100
▁izimfanelo 100
▁apesaka 100
▁1943 100
▁ngumu 100
yebaka 100
uzwa 100
OLO 100
▁bantango 100
▁kobenda 100
▁cinq 100
▁amahanga 100
tog 100
sheshe 100
fundela 100
poli 100
nelungelo 100
▁assist 100
leef 100
8. 100
▁amaphutha 100
▁ryayo 100
▁hau 100
dheid 100
▁rendu 100
▁koninkryk 100
▁Ondersteun 100
▁ZAIDI 100
▁bwoko 100
▁dadelik 100
▁dinner 100
▁linaleli 100
▁Andrew 100
▁familles 100
▁Hawa 100
▁kobuka 100
▁mikopo 100
▁steps 100
▁Kongo 100
▁pite 100
bakhonzi 100
bhaptizwa 100
▁présentation 100
expérience 100
▁bulya 100
abavyeyi 100
abagore 100
▁toege 100
▁balaba 100
▁gram 100
tric 100
▁khoeli 100
▁simiso 100
OL 100
nqula 100
▁notes 100
▁VIDEO 100
▁situations 100
▁bill 100
thele 100
▁scha 100
▁partij 100
▁sources 100
▁kuleyo 100
lolesha 100
▁Nieuwe 100
▁ingelosi 100
hani 100
▁gasten 100
▁festival 100
▁Royal 100
▁abathanda 100
▁employees 100
▁emonisaka 100
swi 100
▁sifo 100
▁ongeluk 100
▁yezwe 100
▁bocha 100
sixhenxe 100
meter 100
tiwa 100
▁Baa 100
▁steek 100
▁vertrek 100
tula 100
twigisha 100
actie 100
magama 100
khetho 100
mulimo 100
économie 100
▁nibe 100
▁donderdag 100
Nkantolo 100
▁Government 100
▁Yosuwa 100
▁libosoliboso 100
▁umwumwe 100
▁katleho 100
▁lisensie 100
▁stadium 100
undwa 100
▁inyanga 100
hlanganise 100
▁samba 100
qhathanisa 100
▁chumba 100
fikiri 100
▁lobiko 100
mens 100
zindaba 100
FO 100
bagira 100
▁okungenzeka 100
▁soins 100
▁followed 100
▁lunga 100
lukaka 100
▁2018. 100
shike 100
funwa 100
▁kolimbisa 100
▁Pho 100
▁koste 100
londoloze 100
rust 100
▁physique 100
kongera 100
▁ongakhetha 100
▁zibonisa 100
▁Doe 100
zilwanyana 100
▁proche 100
▁Flo 100
▁weke 100
gudu 100
iller 100
▁Twe 100
▁savez 100
▁Juma 100
lwayo 100
link 100
▁kwengu 100
iswa 100
▁izinyanga 100
▁gingen 100
▁ihanga 100
▁programs 100
type 100
▁liko 100
▁Mis 100
▁lilya 100
ILE 100
▁ubw 100
▁kokómisa 100
THE 100
pitile 100
▁UT 100
▁linaha 100
▁faite 100
▁successful 100
qaphele 100
ɛrɛ 100
vimba 100
▁accès 100
▁vertrouwen 100
jie 100
▁kirere 100
▁Yozefe 100
▁religion 100
hilomithara 100
▁Jumanne 100
▁réforme 100
▁Tawala 100
▁ithute 100
▁batunaka 100
houden 100
▁complètement 100
▁amasambililo 100
▁Philip 100
▁oortuig 100
mmy 100
comp 100
▁cishi 100
▁sobukhosi 100
kweli 100
og 100
▁express 100
▁ukusanga 100
hlonipha 100
koliso 100
bazange 100
▁Johan 100
▁oral 100
ubutunzi 100
▁chi 100
▁Alexander 100
instant 100
▁hurt 100
nuka 100
▁kukaThixo 100
▁speciale 100
▁waste 100
▁Alobi 100
▁kufwa 100
zenzakalo 100
kuya 100
▁Zab 100
▁ukwemera 100
▁Samia 100
▁gusaba 100
▁plate 100
▁onothando 100
▁pers 100
▁nca 100
▁fri 100
▁Mont 100
▁ukutendeka 100
▁luxe 100
▁hlaka 100
▁grosse 100
▁Simu 100
▁uA 100
▁nokho 100
▁importante 100
▁Ses 100
Ins 100
▁perte 100
kalifya 100
erie 100
▁mhla 100
▁Ungase 100
shigikiye 100
▁Tótalela 100
▁mfatirwako 100
▁cipatala 100
▁phehella 100
▁bolaoa 100
▁nakanjani 100
▁obungunaphakade 100
▁minyoko 100
zetten 100
▁destination 100
▁fibusa 100
chem 100
▁bitabu 100
▁lisosoli 100
shaye 100
▁finished 100
▁souhaitez 100
lungika 100
UNI 100
▁Andi 100
▁devoir 100
▁Maandag 100
ifu 100
▁Asili 100
▁collect 100
bungqina 100
▁AND 100
▁'' 100
gekom 100
ravye 100
▁1914. 100
▁inqwaba 100
▁evening 100
badlali 100
▁leiding 100
English 100
:13 100
▁overheid 100
▁nanoma 100
seRoma 100
▁tv 100
▁Umusi 100
▁owo 100
▁sam 100
▁recette 100
tiewe 100
▁reported 100
fikilishiwa 100
mbuka 100
▁Young 100
yokwenza 100
âge 100
▁Services 100
▁spoor 100
heim 100
bigenza 100
▁opdracht 100
▁ukundi 100
phy 100
kucabanga 100
ngelosi 100
spraak 100
▁rire 100
▁ukwamukela 100
lui 100
▁onjalo 100
nki 100
randa 100
▁lys 100
▁ISI 100
▁nantoni 100
yohlala 100
mvye 100
endelee 100
▁Noba 100
▁yilokho 100
you 100
yokaki 100
▁ukulya 100
▁Ingaba 100
▁sukses 100
▁Republic 100
▁morgen 100
▁Jeremia 100
▁Témoins 100
▁hanteer 100
▁eer 100
buthathaka 100
▁bwenge 100
▁ikakhulu 100
▁mɔtɔ 100
Shi 100
▁bukalamba 100
▁balandile 100
▁akigoro 100
▁bv 100
▁ernstig 100
▁wandel 100
▁37. 100
▁schools 100
UNGA 100
▁fyalengele 100
▁kososola 100
▁asaba 100
▁ruto 100
pet 100
▁iku 100
sithathu 100
pila 100
lemu 100
row 100
rge 100
▁soft 100
njwa 100
cia 100
ná 100
▁Check 100
lanshanya 100
▁kwawe 100
▁helpful 100
songa 100
▁Gro 100
▁sitting 100
▁communicatie 100
https 100
yali 100
▁ephakeme 100
▁Edeni 100
▁wood 100
ned 100
nqubo 100
▁chache 100
▁wezwe 100
▁makao 100
amajambo 100
bophe 100
tontonkanyapo 100
Zibhalo 100
▁boku 100
▁scene 100
▁dur 100
ngasisiza 100
head 100
ON 100
▁réponses 100
▁videos 100
▁izisebenzi 100
▁wenzake 100
▁Bamwebamwe 100
▁Mhlawumbi 100
▁utamaduni 100
▁Bajode 100
▁vibaya 100
▁bijzondere 100
▁mice 100
▁prop 100
fatanya 100
shingwa 100
▁eziyisithupha 100
▁Ndege 100
bunzima 100
▁mauvais 100
▁sla 100
rst 100
▁ezingokomoya 100
mbila 100
▁reli 100
▁Rebeka 100
kwaYuda 100
▁umukashana 100
nten 100
▁attendre 100
▁Hack 100
▁request 100
ër 100
monaka 100
▁hisia 100
▁overzicht 100
▁babomba 100
jamelana 100
▁kime 100
▁kofina 100
▁elandelayo 100
▁enamandla 100
mfi 100
phenduke 100
▁ingxaki 100
▁Etats 100
▁ifuna 100
▁38. 100
▁nkisi 100
KHO 100
▁lehae 100
▁helps 100
zwana 100
▁bafandi 100
▁délai 100
Yi 100
fitiye 100
vuya 100
▁akopesa 100
▁rules 100
mafutha 100
tindaki 100
▁kubaluleke 100
vrij 100
sinqumo 100
nciphisa 100
gaye 100
zuka 100
▁dog 100
▁relative 100
▁berig 100
yiswe 100
ezinye 100
▁VER 100
▁minste 100
cc 100
▁lathi 100
▁ET 100
▁Hlola 100
▁fourni 100
▁bloot 100
hlukene 100
ncy 100
kholo 100
▁breek 100
▁caractère 100
▁litšila 100
▁ngokujulile 100
▁parfaitement 100
▁iintlobo 100
▁Misri 100
▁ngiku 100
▁roof 100
▁bezoekers 100
▁liphoso 100
▁ukukwenza 100
thobekile 100
mbiza 100
Yakobi 100
tegeka 100
▁Poland 100
mig 100
lys 100
kolaki 100
las 100
▁Azali 100
gendeye 100
▁behulp 100
▁ngoYehova 100
DP 100
▁isibindi 100
▁Inkosi 100
tw 100
▁31, 100
km 100
▁okuyinto 100
▁bakholelwa 100
hambisa 100
wataka 100
gens 100
▁publish 100
▁intervention 100
▁sino 100
▁wonen 100
shile 100
wona 100
raca 100
▁eYerusalem 100
▁mamele 100
▁Kagera 100
nker 100
▁Victoria 100
lefwaisha 100
lubula 100
thathu 100
▁ngom 100
▁jul 100
sami 100
▁cursus 100
lock 100
▁iva 100
▁stappen 100
▁lefa 100
▁khothatsa 100
LS 100
▁Kong 100
▁kolela 100
▁isebenza 100
▁wingi 100
▁geleer 100
Man 100
▁waarna 100
khulunywa 100
▁gagner 100
▁Take 100
▁kungcono 100
▁actief 100
▁tsamaeang 100
▁faible 100
▁speciaal 100
▁bokamoso 100
▁vɛrsɛ 100
▁fifulo 100
fungu 100
persoonsgegevens 100
▁études 100
▁imipepele 100
▁Esikhathini 100
kokoka 100
▁accident 100
fri 100
▁Très 100
▁Bafilipi 100
ngqa 100
▁Next 100
MBI 100
genga 100
igungu 100
▁kwihangana 100
rog 100
▁likamano 100
▁fyabipa 100
▁vieux 100
▁Saulo 100
▁91 100
its 100
▁ngobu 100
wala 100
▁madarakani 100
▁nécessaires 100
▁balebomfya 100
▁voelt 100
▁remain 100
GE 100
abizigirwa 100
amanang 100
▁lebella 100
▁activity 100
▁haute 100
sangile 100
simba 100
▁tolingi 100
▁besit 100
▁MAT 100
maphoyisa 100
mnika 100
▁uYise 100
▁ezinjenge 100
▁ukushumayela 100
▁iphutha 100
▁rappelle 100
▁ukucetekela 100
▁Power 100
cité 100
shingira 100
▁abaza 100
pusa 100
cwe 100
sus 100
▁abatumwa 100
zodufasha 100
sumba 100
dro 100
▁Kies 100
▁ikimazi 100
▁mp 100
kusha 100
▁Lang 100
▁kolala 100
▁stroom 100
▁bamboka 100
▁ABANTU 100
▁kufu 100
dida 100
▁ahead 100
▁vertrou 100
▁oggend 100
▁session 100
hō 100
▁Loma 100
sansamusha 100
▁sélection 100
▁ngokuthe 100
kwanda 100
▁ukufundisa 100
▁Gold 100
▁dinsdag 100
▁ubulalelale 100
▁Yoshua 100
▁wysigings 100
▁eNkosini 100
yithola 100
▁meisie 100
▁equipment 100
▁lile 100
▁nimuze 100
▁Jaji 100
▁sebelisang 100
▁ukucindezeleka 100
▁Angeles 100
▁poli 100
zobona 100
ori 100
tuna 100
thuthela 100
Sirayeli 100
mmen 100
bepa 100
mbisi 100
▁umzali 100
▁izigqibo 100
▁gene 100
lungiselele 100
▁ZI 100
rirwa 100
oang 100
kiti 100
lema 100
▁voeren 100
▁Bacha 100
▁fresh 100
SS 100
There 100
▁Jinsia 100
▁ezingena 100
tupa 100
▁betrokken 100
▁Hoop 100
ngezi 100
phumelelayo 100
▁kelellong 100
▁cash 100
buntu 100
mene 100
▁lokale 100
▁bapala 100
▁Zu 100
▁deed 100
▁fumanoa 100
▁thabile 100
langazelela 100
▁baishiba 100
▁uusha 100
▁EL 100
▁noki 100
▁comprend 100
▁Ukholo 100
▁gister 100
▁76 100
nement 100
▁eyoku 100
▁gesch 100
busisa 100
tegemea 100
▁Baheberu 100
▁Batsoali 100
▁boeena 100
▁conference 100
pere 100
▁(10 100
▁litambwisi 100
▁imembu 100
trap 100
razi 100
▁bakozwa 100
▁umuco 100
▁ubukhulu 100
▁ukugula 100
▁ngokubanzi 100
▁ngenjabulo 100
▁abalwani 100
CD 100
▁navorsing 100
ngola 100
▁utakuwa 100
rhulumente 100
▁Ven 100
▁ntidu 100
▁tš 100
gmail 100
Igihe 100
▁baile 100
▁camping 100
▁ngenye 100
9. 100
NYA 100
▁wensen 100
▁ryawe 100
▁indodakazi 100
ban 100
▁Herman 100
▁nomyeni 100
mlinganiselo 100
LWA 100
lafwaisha 100
▁sert 100
wij 100
▁ifa 100
▁Abadala 100
▁nomfazi 100
▁Leuk 100
▁hantu 100
▁Ayi 100
▁yebandla 100
hlangabezana 100
▁ubora 100
▁Wiki 100
▁nation 100
▁utuntu 100
sebenzi 100
▁nemali 100
hloko 100
▁bongera 100
ngokomoya 100
nana 100
▁buzo 100
▁kwisi 100
kiriye 100
▁shown 100
▁geluid 100
▁deliver 100
▁Gouvernement 100
▁ithutile 100
▁Yiyiphi 100
▁mwubakanye 100
guquka 100
▁iliyofanyika 100
▁Bulaya 100
▁presse 100
▁liphetoho 100
▁eziningana 100
▁Kamanda 100
▁likhoeli 100
▁ngokusobala 100
▁mwaishiba 100
leikala 100
▁Naast 100
▁yimuphi 100
▁gain 100
▁Mzee 100
▁Ikindi 100
▁Haag 100
kunye 100
salapo 100
siphelo 100
▁growing 100
INI 100
▁Mtume 100
▁apart 100
▁abafana 100
▁ngomusa 100
duga 100
▁alimu 100
▁sama 100
▁classes 100
tumba 100
▁fully 100
▁liefst 100
▁iLizwi 100
▁igicumuro 100
wayefuna 100
▁tevreden 100
▁mutu 100
▁capacité 100
▁izibusiso 100
▁naomba 100
▁kobomba 100
iwa 100
khanya 100
Ti 100
qinise 100
▁34, 100
▁versie 100
bafileyo 100
▁rikaba 100
▁IBULA 100
▁abenga 100
▁rêve 100
▁mvugo 100
▁huid 100
▁abathi 100
skool 100
▁kuteka 100
lunga 100
▁kungabi 100
▁lijst 100
ENI 100
VE 100
nx 100
bat 100
remwe 100
▁drug 100
▁iy 100
▁church 100
▁ukuthenga 100
▁Minister 100
ded 100
▁INDIRIMBO 100
▁Intaneti 100
▁défaut 100
▁kumbukumbu 100
▁wafanyabiashara 100
▁musebo 100
▁gepraat 100
▁positief 100
▁ubulungisa 100
▁mbongwana 100
▁ukwihangana 100
▁Rimwe 100
▁lemosa 100
▁mwanaume 100
▁Edition 100
▁host 100
▁Beach 100
▁YAKE 100
▁mizali 100
▁ujao 100
▁1965 100
▁vert 100
▁nabesifazane 100
kete 100
▁Sana 100
▁aliwa 100
dubula 100
mkhulu 100
▁Pat 100
sky 100
▁allait 100
▁massa 100
▁wataalamu 100
bibona 100
▁matata 100
▁carry 100
sinceda 100
umwaka 100
namathela 100
▁lisho 100
▁alinéa 100
▁montrer 100
kutya 100
▁emela 100
himba 100
▁lilikuwa 100
▁Grote 100
But 100
▁pire 100
▁butle 100
▁88 100
▁kulipa 100
▁Ukungena 100
▁ukukhulekela 100
oh 100
▁Ngani 100
ingingo 100
▁ucingo 100
Mpo 100
▁Cila 100
entrée 100
▁nezinkinga 100
dudu 100
▁EA 100
▁khone 100
▁batemwa 100
▁Euro 100
zona 100
sayensi 100
▁Hao 100
▁basavyi 100
fees 100
utelo 100
▁elitsha 100
▁ameha 100
▁unako 100
DC 100
▁ifili 100
saleli 100
▁geur 100
▁nokuthula 100
nonkelamo 100
▁passie 100
▁JE 100
ura 100
▁Ari 100
▁yangempela 100
▁konyokola 100
▁Knorr 100
▁spread 100
▁voertuig 100
▁LADY 100
▁mas 100
▁akosala 100
▁forcément 100
▁willing 100
▁Zabolo 100
▁amepusho 100
bekela 100
▁udokotela 100
▁Lakisá 100
live 100
raak 100
▁ndoto 100
bara 100
▁Mukalamba 100
▁tuhuma 100
assi 100
▁Vy 100
▁tenir 100
▁clearly 100
▁invite 100
▁Nuus 100
▁ikimenyamenya 100
▁iriko 100
▁bameze 100
▁nika 100
▁atangura 100
kenguruka 100
hoor 100
▁uDeveli 100
mans 100
nders 100
▁alikwata 100
ngqina 100
Picha 100
PP 100
▁balishiba 100
teke 100
▁hoewel 100
▁servir 100
▁haija 100
kugwema 100
▁vereniging 100
▁zat 100
▁Heer 100
safiri 100
tete 100
tyelela 100
▁Samuel 100
▁Microsoft 100
▁itari 100
dumo 100
▁prof 100
▁olunga 100
zingelosi 100
lash 100
kelwa 100
▁bokuqala 100
are 100
ijana 100
lange 100
▁Fair 100
▁97 100
▁nzala 100
bakeng 100
spreek 100
sekuhlaleni 100
▁Grɛki 100
▁benieuwd 100
▁Zealand 100
▁aanrader 100
▁bopusi 100
▁maafisa 100
▁phihlelo 100
▁litsebi 100
▁barenga 100
qatha 100
reza 100
▁uwezekano 100
batishiwe 100
▁browser 100
▁Ntu 100
▁Mars 100
▁Spi 100
▁weBhayibheli 100
▁Mji 100
▁ukiwa 100
▁intombi 100
▁thuse 100
dliwa 100
fanelwe 100
▁abathembekile 100
ngeze 100
▁PR 100
▁Twali 100
volle 100
▁offered 100
▁Letsatsi 100
▁gesi 100
ngami 100
▁imicabango 100
▁maholo 100
mbola 100
▁eyenziwa 100
▁Genesis 100
mbutho 100
kwiriye 100
tangwa 100
leisa 100
▁premières 100
▁kasuba 100
▁eating 100
▁izimpendulo 100
▁ele 100
cking 100
▁watatu 100
▁kilometer 100
▁Harry 100
▁isenzo 100
▁kutengeneza 100
iz 100
▁Mario 100
▁mabunga 100
▁Press 100
▁inceku 100
▁alangile 100
ief 100
▁wito 100
minikelo 100
pepela 100
▁yabaye 100
SEO 100
▁siqhubeke 100
▁dream 100
▁debat 100
▁dispose 100
wayini 100
thuli 100
▁ulwimi 100
nts 100
▁isilinganiso 100
koli 100
▁cheap 100
thakazelisayo 100
▁2016, 100
▁French 100
▁yanaweza 100
▁stelt 100
▁shine 100
▁breed 100
▁aware 100
▁initial 100
gging 100
▁Nara 100
sabankanya 100
▁irimwo 100
▁Sayansi 100
▁pouvons 100
▁mamello 100
▁brother 100
▁mopɛpɛ 100
▁mema 100
▁comfortable 100
▁lieux 100
▁ngamanzi 100
▁tôt 100
▁kwizigirwa 100
▁filiale 100
kholelwe 100
▁Fil 100
▁mepusho 100
ingabo 100
▁Said 100
EF 100
BU 100
▁lemoha 100
▁Elakisa 100
▁1944 100
▁kurimbura 100
▁goals 100
▁nè 100
biso 100
uoa 100
▁lisungi 100
▁hoort 100
zuzisa 100
▁grade 100
▁edolobheni 100
▁helped 100
dhibiti 100
▁abenza 100
▁dress 100
PR 100
▁izinzuzo 100
▁amasonto 100
▁umubabaro 100
lepepa 100
▁(5) 100
▁Welke 100
matig 100
▁crise 100
▁Amagama 100
▁kultuur 100
▁bazama 100
▁oproep 100
jan 100
sihlalo 100
▁expert 100
rand 100
▁rouge 100
▁busy 100
sicelo 100
▁ukukhokha 100
gs 100
alle 100
yafya 100
aimerais 100
loze 100
winkel 100
▁ruime 100
▁ngaphantsi 100
▁proces 100
▁Tš 100
lipwa 100
▁ran 100
▁MP 100
▁uitgebreid 100
▁oye 100
▁Yaciye 100
▁ap 100
▁babandaki 100
▁Ulwazi 100
lacita 100
▁views 100
napenda 100
kuja 100
cetekele 100
▁pres 100
TAZAMA 100
▁Matla 100
KOYEBA 100
▁Ezekiyeli 100
▁Français 100
▁Suluhu 100
▁ushahidi 100
▁vóór 100
▁nsɔmɔ 100
▁DARASA 100
▁automatisch 100
▁heilige 100
▁munyina 100
moneke 100
▁cikonkelepo 100
▁NoNkulunkulu 100
rana 100
▁bukaNkulunkulu 100
▁bitsa 100
▁moprofeta 100
▁verkeerde 100
▁1942 100
khoyo 100
▁lisoló 100
▁mulilo 100
▁ngokuthula 100
asa 100
lethe 100
▁ndimiro 100
▁joie 100
▁zezinto 100
▁wemfanelo 100
▁kujadili 100
▁ubwalwa 100
suminishe 100
400 100
▁baan 100
▁helpt 100
▁tóyeba 100
▁Yami 100
▁batontonkanya 100
steen 100
▁lift 100
THI 100
▁listen 100
▁ongena 100
▁abakwazi 100
▁geestelike 100
▁Rock 100
thutha 100
▁monate 100
yifunda 100
lees 100
bazalwana 100
milinganiselo 100
pima 100
kude 100
▁1982 100
niki 100
▁lovely 100
Wi 100
cur 100
▁categorie 100
fatso 100
▁ndipo 100
intama 100
▁ezifanayo 100
tše 100
hlukana 100
thala 100
▁pande 100
▁Saba 100
▁ukulenga 100
▁veilige 100
▁mwakwe 100
▁olwandle 100
▁Hae 100
▁sitoa 100
jwayele 100
▁eyinhloko 100
shela 100
gels 100
▁ontdek 100
bio 100
chwepheshe 100
▁Baklisto 100
▁Ufafanuzi 100
▁lithethefatsi 100
▁mitungisi 100
▁verblijf 100
▁Heberu 100
▁gekozen 100
▁risasi 100
gq 100
▁gelezen 100
▁Ok 100
▁NCHI 100
bhale 100
▁committee 100
▁ifyali 100
▁lwabantu 100
kua 100
▁pyn 100
▁bamonaka 100
▁karorero 100
▁Miss 100
▁passen 100
▁kwesinye 100
▁tablet 100
maliza 100
llie 100
▁inmiddels 100
▁anyway 100
makhulu 100
yintoni 100
▁Mfumu 100
▁sine 100
▁Kuthe 100
▁played 100
▁healthy 100
▁akoze 100
▁Seif 100
ubwenge 100
natumia 100
▁propres 100
▁Izinga 100
uzuye 100
imwe 100
gokuqondene 100
▁machines 100
pani 100
gcini 100
sikhombisa 100
▁guta 100
▁Ungakwazi 100
▁yehlabathi 100
rés 100
our 100
prys 100
▁sazi 100
poka 100
▁correspond 100
cika 100
kiringo 100
▁zize 100
kracht 100
▁AU 100
udu 100
phuze 100
musaba 100
makhosi 100
▁buntu 100
phephile 100
iques 100
▁reduce 100
▁beng 100
▁BAIBOLO 100
▁Ekugqibeleni 100
▁Matangazo 100
▁tšeletseng 100
▁nasionale 100
▁Utrecht 100
▁Njani 100
hilelekile 100
▁mazao 100
▁contacter 100
▁retard 100
▁vrije 100
▁huur 100
▁kiwanda 100
ntsimbi 100
▁guhitamwo 100
▁tendance 100
▁assessment 100
▁ubuKristu 100
300 100
amba 100
huje 100
nqubomgomo 100
▁weather 100
▁Afrikaners 100
▁billion 100
▁boletsoeng 100
hlakaniphile 100
▁yaphansi 100
▁pratiques 100
bahlukahlukene 100
▁Sinon 100
nzuzo 100
▁honden 100
gor 100
▁accessible 100
ndy 100
▁bakanisaka 100
▁geste 100
▁kose 100
▁umyalezo 100
▁Ngabe 100
▁précise 100
▁kulalenga 100
▁signifie 100
▁Lake 100
▁brengt 100
▁lwimi 100
▁Brown 100
▁160 100
kalo 100
▁ukufuna 100
▁barani 100
▁voorwaardes 100
ena 100
tii 100
mulenga 100
station 100
▁Keep 100
▁tipe 100
BL 100
nake 100
▁objectifs 100
▁indalo 100
▁stro 100
▁beba 100
▁optrede 100
▁usio 100
ɔkɔ 100
▁tests 100
RC 100
▁monter 100
▁mauvaise 100
tore 100
kiendelea 100
▁sakwa 100
▁paka 100
▁kiu 100
▁yakoresheje 100
▁lundi 100
▁(17 100
kungu 100
OKUQALA 100
▁KUHUSU 100
▁monyenyane 100
▁Inyishu 100
▁ngámbo 100
▁piscine 100
▁adhabu 100
▁kumazwe 100
▁teknolojia 100
▁nuusbron 100
▁begonnen 100
▁watakao 100
▁Askofu 100
▁mchana 100
▁mwacita 100
▁zile 100
▁balemu 100
▁golf 100
▁asking 100
▁okungu 100
▁thema 100
▁ride 100
▁tšepiso 100
▁stede 100
seke 100
▁taku 100
▁Roho 100
▁numva 100
▁yebo 100
▁included 100
lim 100
▁Ber 100
Dis 100
chel 100
▁izindleko 100
▁ntitu 100
▁yasiyo 100
zakhiwo 100
bulela 100
▁1; 100
kosi 100
▁gut 100
kithi 100
▁Emonan 100
▁armoede 100
▁comprends 100
▁ukuhlupheka 100
▁PDF 100
▁umuzwa 100
▁pass 100
▁speelt 100
▁Ntho 100
▁dos 100
▁nethemba 100
▁kubeba 100
kusasa 100
▁ngalesi 100
hlisa 100
▁DU 100
arch 100
senzo 100
▁kuda 100
▁target 100
suula 100
zombangazwe 100
uv 100
▁Tesalonika 100
▁bafɔtɔ 100
▁kakaretso 100
▁plenty 100
▁réflexion 100
▁ecaleni 100
▁basebetsi 100
▁Mazingira 100
JE 100
▁judge 100
▁kikuu 100
▁Mobali 100
▁Wakuu 100
mdlali 100
▁NINI 100
▁intsapho 100
▁Ulu 100
▁engase 100
▁mbano 100
vuyo 100
▁overall 100
▁sturen 100
▁tieo 100
▁réalisé 100
OP 100
nikezwe 100
midi 100
▁BATO 100
▁museum 100
▁yindi 100
nokholo 100
tupeela 100
▁brein 100
sted 100
▁bazangi 100
▁elekaki 100
lutsha 100
▁imihlangano 100
▁massage 100
▁ikimenyetso 100
zeke 100
JavaScript 100
▁snelle 100
amadini 100
semaji 100
5. 100
bandanije 100
film 100
▁bwandi 100
▁werkzaamheden 100
▁izitha 100
▁méthode 100
▁manage 100
▁expertise 100
▁Ak 100
wende 100
▁snap 100
▁16] 100
▁36. 100
▁ziki 100
letele 100
mic 100
▁Key 100
▁facebook 100
huri 100
▁udinga 100
itse 100
▁uK 100
pingulapo 100
▁collectie 100
▁ntsapho 100
Wo 100
▁uvuga 100
▁partenaires 100
issent 100
pelekea 100
▁appears 100
▁payer 100
▁Han 100
▁gedagtes 100
fun 100
china 100
iging 100
zikhandla 100
biye 100
▁Premier 100
▁jukumu 100
▁liqeto 100
▁heavy 100
▁nkaba 100
▁moenie 100
▁Zilizop 100
▁bol 100
-0 100
▁Voorwaarde 100
▁fantastic 100
▁voeding 100
▁fallait 100
sungu 100
▁1983 100
▁Kleur 100
▁umuku 100
kwicisha 100
▁pieds 100
▁1948 100
▁tsosa 100
▁claim 100
yisisekelo 100
gno 100
▁isezerano 100
▁ngenhliziyo 100
ceba 100
▁uitdaging 100
kulawula 100
▁uhamba 100
▁Which 100
▁89 100
▁Lit 100
▁1920 100
qho 100
▁kupinga 100
▁Mke 100
wali 100
kita 100
▁functie 100
lungiselelwe 100
sisekelo 100
▁vlieg 100
dh 100
▁imikhiqizo 100
kinyamakuru 100
▁turushiriza 100
▁intuntu 100
▁ikiganiro 100
▁ingakumbi 100
▁apprendre 100
▁kla 100
▁trouwens 100
lijst 100
▁River 100
▁certaine 100
Ngo 100
▁umfundisi 100
▁Big 100
gqibe 100
oire 100
MBO 100
kg 100
zandla 100
▁basalelaka 100
bhokisi 100
rewe 100
rique 100
eling 100
▁kumara 100
cin 100
miliyoni 100
tutungulula 100
▁psycho 100
▁Wapi 100
▁ntumwa 100
salaka 100
▁miles 100
mbandezelo 100
▁Britannica 100
▁imilandu 100
▁uwekezaji 100
▁Desember 100
▁Jeremane 100
▁Bakolose 100
▁ntangere 100
▁stupid 100
▁Translation 100
▁owenziwa 100
▁litabeng 100
▁siansi 100
▁Masharti 100
▁Amose 100
▁soul 100
▁mawaziri 100
▁faudrait 100
▁procent 100
▁Ndakisa 100
mangalisa 100
AS 100
▁reality 100
bikezela 100
▁verlaat 100
▁dry 100
▁1914, 100
eka 100
Jobe 100
chungechunge 100
mangala 100
ères 100
▁inguvu 100
▁Kubalulekile 100
vikele 100
key 100
thengi 100
▁totally 100
▁bepaald 100
bukisha 100
▁mube 100
▁winkels 100
▁Eerste 100
mphakathi 100
▁yatumye 100
industrie 100
▁twamona 100
vile 100
sindise 100
ami 100
▁Long 100
ét 100
▁Yako 100
▁yikho 100
keza 100
▁Bla 100
▁bakoresha 100
▁bubakanye 100
▁yaramu 100
kulungisa 100
▁Isihloko 100
▁yayinga 100
ieve 100
leleka 100
town 100
yn 100
▁ungi 100
▁nombono 100
ncedisa 100
dae 100
▁pièces 100
▁kuacha 100
ngumuntu 100
▁Abi 100
songo 100
▁Juu 100
bongoza 100
lubana 100
▁lomhlaba 100
▁moral 100
▁Auto 100
▁balembele 100
phambi 100
hangana 100
▁groupes 100
▁draw 100
▁balingaki 100
▁namanje 100
verzekering 100
▁Diabolose 100
▁habonolo 100
▁lithapelo 100
▁mampalanya 100
▁troisième 100
▁voulait 100
habitude 100
dluliselwa 100
NYE 100
▁Hand 100
▁regs 100
ngakapheli 100
thunyelwe 100
▁journey 100
▁busumino 100
stan 100
sɛ 100
▁afspraak 100
▁momenteel 100
ngezwa 100
▁ifyacindama 100
▁IMI 100
niye 100
▁function 100
▁Scott 100
▁sibonisa 100
sine 100
▁upya 100
bukela 100
▁stijl 100
▁server 100
kutani 100
▁bamishonari 100
simweni 100
▁aimé 100
radi 100
▁enter 100
qeqesho 100
▁10% 100
▁Download 100
▁basangile 100
yiphi 100
▁ongum 100
kwamuva 100
▁spesifieke 100
dl 100
bhodi 100
▁vervangen 100
▁device 100
zungumza 100
▁Kupata 100
ikintu 100
zimpawu 100
ological 100
▁reacties 100
shinzwe 100
▁izimpawu 100
▁Restaurants 100
▁medium 100
▁Cal 100
▁umphathi 100
twele 100
▁label 100
sul 100
▁bedankt 100
khomba 100
▁yenze 100
▁ebalulekileyo 100
kans 100
▁washiriki 100
mbini 100
▁matlo 100
▁96 100
▁ezahlukene 100
kumine 100
▁visible 100
▁kwibaza 100
miso 100
▁vyaba 100
▁gake 100
▁kabungwe 100
mei 100
▁kulowo 100
▁ngento 100
jitokeza 100
taendelea 100
▁abashi 100
▁bendi 100
▁kufi 100
▁risques 100
hole 100
▁tubi 100
kelijk 100
longo 100
siri 100
qalise 100
On 100
▁Abakorinto 100
▁lihlopha 100
raronse 100
▁jirani 100
▁bottom 100
▁kudingeke 100
▁supileng 100
▁tšepe 100
▁Roman 100
kle 100
▁SIKU 100
▁safety 100
▁bepalen 100
IV 100
sigaba 100
ntle 100
PC 100
▁ubukombe 100
▁Nari 100
▁lokisetsa 100
▁icacindama 100
▁mocht 100
▁joueurs 100
kate 100
éré 100
▁bobabili 100
▁Sto 100
nari 100
▁Sudan 100
▁juzi 100
▁dear 100
▁letters 100
▁Armagedone 100
▁MB 100
tere 100
▁mvo 100
▁directly 100
▁nsé 100
▁Point 100
▁nabani 100
▁bilanga 100
cebisa 100
ssing 100
▁abalume 100
▁stick 100
sekuqaleni 100
umusi 100
▁rustige 100
▁ngokucacileyo 100
▁gebeuren 100
▁ezingaba 100
▁Ivyahishuriwe 100
lebelenga 100
▁abakhulu 100
▁Texas 100
▁Mantsoe 100
▁protest 100
pali 100
shana 100
zimele 100
dela 100
ratahura 100
▁KaYehova 100
meka 100
▁yatila 100
vor 100
▁Dia 100
▁separate 100
▁mapa 100
▁souhait 100
▁earth 100
▁versoek 100
▁yeqiniso 100
▁bigize 100
▁iS 100
▁Kweli 100
kuqinisekisa 100
▁pijn 100
rez 100
unyinefwe 100
▁befuna 100
▁inyiyumvo 100
Nkathi 100
hol 100
hoze 100
▁toneel 100
leso 100
▁artikelen 100
zokwiger 100
▁trekken 100
▁remise 100
▁waze 100
▁ukwanda 100
▁obligatoire 100
[...]
